<unk>	0
<s>	0
</s>	0
[CLS]	0
[SEP]	0
[MASK]	0
[$A]	0
[$B]	0
[$C]	0
[$D]	0
[$E]	0
[$F]	0
[$G]	0
[$H]	0
[$I]	0
[$J]	0
[$K]	0
[$L]	0
[$M]	0
[$N]	0
、	-2.96871
。	-3.10772
の	-3.16275
▁	-3.26605
は	-3.89396
が	-4.2211
を	-4.31237
に	-4.55723
と	-4.72393
で	-4.76622
である	-5.26559
や	-5.36525
C	-5.50482
」	-5.50725
する	-5.55277
では	-5.60064
.	-5.63889
・	-5.65219
も	-5.6742
/	-5.73049
「	-5.7358
から	-5.75389
として	-5.77662
-	-5.9449
1	-5.96865
した	-5.98482
s	-6.02585
し	-6.04747
という	-6.16735
される	-6.17978
2	-6.20568
その	-6.22436
年	-6.23011
言語	-6.23962
な	-6.25729
型	-6.25911
など	-6.3489
には	-6.37455
された	-6.41355
る	-6.42946
プログラム	-6.43348
3	-6.45594
関数	-6.45774
している	-6.49023
して	-6.50215
S	-6.55685
,	-6.55725
か	-6.55809
た	-6.58576
であり	-6.59314
++	-6.60361
がある	-6.61675
ため	-6.62375
▁また	-6.63193
によって	-6.63698
できる	-6.65099
▁この	-6.68499
:	-6.71432
▁C	-6.72039
A	-6.73525
による	-6.76233
▁:	-6.77185
実装	-6.77786
D	-6.78036
コード	-6.79535
ー	-6.79819
されている	-6.80249
a	-6.82482
システム	-6.8717
機能	-6.89633
い	-6.9159
クラス	-6.91901
開発	-6.93509
り	-6.94123
e	-6.94722
4	-6.96633
され	-6.96938
などの	-6.97573
データ	-6.97673
t	-6.98711
この	-6.99142
ている	-6.99727
処理	-6.99976
x	-7.00603
)	-7.00804
p	-7.01105
プログラミング	-7.01179
プログラミング言語	-7.02135
変数	-7.02177
および	-7.02486
より	-7.02624
オブジェクト	-7.03185
場合	-7.03979
n	-7.0413
$	-7.05554
c	-7.05928
て	-7.05936
性	-7.06306
i	-7.07002
ス	-7.07254
B	-7.07302
となる	-7.08236
5	-7.09238
F	-7.09452
Java	-7.09566
>	-7.09875
P	-7.11614
コンピュータ	-7.12177
_	-7.13618
0	-7.14052
アプリケーション	-7.14199
E	-7.14249
d	-7.14799
r	-7.15079
月	-7.15217
#	-7.15232
により	-7.15335
的な	-7.15762
とは	-7.15882
▁例えば	-7.16149
文	-7.16515
ない	-7.16684
T	-7.17594
b	-7.18084
m	-7.18319
R	-7.18412
er	-7.19033
実行	-7.19443
定義	-7.19652
命令	-7.19652
行	-7.20047
M	-7.20197
的	-7.20554
コンパイラ	-7.20851
|	-7.20894
ライブラリ	-7.21039
ある	-7.224
y	-7.22954
▁これは	-7.23146
において	-7.23507
ことができる	-7.24172
でも	-7.24243
I	-7.25531
o	-7.25788
一	-7.25959
数	-7.26924
X	-7.27068
における	-7.2769
式	-7.27921
つの	-7.28598
ン	-7.28894
ル	-7.29347
値	-7.30178
く	-7.30197
演算子	-7.3024
計算	-7.30726
メモリ	-7.32047
ソフトウェア	-7.32588
になる	-7.32761
こと	-7.33313
年に	-7.33349
への	-7.34117
ファイル	-7.34747
ト	-7.35786
Windows	-7.37311
▁#	-7.37488
f	-7.37916
参照	-7.381
6	-7.38252
つ	-7.39482
的に	-7.39895
他の	-7.40622
l	-7.41517
設計	-7.42143
g	-7.42554
9	-7.42897
操作	-7.43201
メソッド	-7.43797
ように	-7.4412
といった	-7.44171
http	-7.4423
文字	-7.44267
://	-7.44452
文字列	-7.44512
化	-7.44652
用	-7.44844
L	-7.4527
のみ	-7.45611
を持つ	-7.47001
と呼ばれる	-7.47894
7	-7.47951
を行う	-7.48224
u	-7.48341
ら	-7.48395
ク	-7.487
]	-7.4957
版	-7.50415
もの	-7.50458
記述	-7.50972
構文	-7.51433
言語の	-7.51826
点	-7.51937
または	-7.52086
問題	-7.53643
▁しかし	-7.53898
に対して	-7.54095
情報	-7.54845
各	-7.55129
のような	-7.55458
(	-7.55877
8	-7.56059
ビット	-7.56268
標準	-7.56335
in	-7.57519
'	-7.57599
ア	-7.57744
NET	-7.5785
入力	-7.57945
拡張	-7.58199
バージョン	-7.58958
モジュール	-7.59288
複数の	-7.5946
G	-7.59595
まで	-7.60042
O	-7.6148
表現	-7.62034
イ	-7.63206
す	-7.63647
名	-7.64294
リスト	-7.64568
部分	-7.65088
k	-7.65153
引数	-7.65228
関係	-7.65594
環境	-7.65687
=	-7.66134
後	-7.66363
だけ	-7.66987
試験	-7.67172
にも	-7.67182
en	-7.67434
API	-7.67964
上で	-7.68061
</	-7.68334
▁なお	-7.68862
多くの	-7.68871
例	-7.69521
配列	-7.69578
使用	-7.69898
ものである	-7.70983
コンパイル	-7.71102
ような	-7.71121
者	-7.71705
[	-7.71954
のように	-7.72206
形式	-7.72472
それ	-7.72602
V	-7.72869
テスト	-7.73013
OS	-7.73198
H	-7.7343
N	-7.73652
上	-7.73794
リ	-7.74559
宣言	-7.75137
ループ	-7.75383
ラ	-7.75395
K	-7.75425
w	-7.7557
名前	-7.75707
同じ	-7.75732
わ	-7.7614
ことで	-7.76444
ために	-7.76572
no	-7.76806
構造	-7.76889
、「	-7.77044
最適化	-7.7719
on	-7.77213
ブロック	-7.77232
要素	-7.77523
10	-7.77561
技術	-7.77713
回	-7.77959
様々な	-7.7845
ド	-7.7862
ではなく	-7.7942
った	-7.79901
モデル	-7.80323
al	-7.80448
インタプリタ	-7.80461
とする	-7.81406
W	-7.81444
ポインタ	-7.81984
日	-7.82399
text	-7.82551
れ	-7.82908
ことを	-7.83059
しない	-7.8324
▁|	-7.8343
あるいは	-7.83537
プログラムの	-7.83619
マクロ	-7.84174
時間	-7.84797
動作	-7.85094
人	-7.85367
事	-7.8548
できない	-7.86244
ing	-7.86835
状態	-7.87057
スレッド	-7.87068
re	-7.8771
出	-7.87721
異なる	-7.88464
また	-7.88759
を使って	-7.89558
について	-7.89775
J	-7.89865
or	-7.89917
もある	-7.90141
方法	-7.9017
等	-7.90349
仕様	-7.91493
h	-7.91814
プロセス	-7.91944
き	-7.92265
ソースコード	-7.92514
することができる	-7.9307
って	-7.93159
変更	-7.93266
U	-7.93656
▁ただし	-7.93789
を使う	-7.9405
ための	-7.94093
さ	-7.94217
ツール	-7.94474
中	-7.94843
www	-7.94874
手法	-7.94954
インタフェース	-7.95226
部	-7.95241
アクセス	-7.95295
スタック	-7.95433
条件	-7.96027
制御	-7.9632
wiki	-7.96341
があり	-7.96434
ではない	-7.97616
上の	-7.97653
同	-7.97898
に関する	-7.97955
評価	-7.98225
であった	-7.98519
新しい	-7.98591
シ	-7.98953
プログラムを	-7.99074
ハードウェア	-7.99344
アルゴリズム	-7.99411
語	-7.99432
ことが	-7.99742
変換	-7.99819
なく	-7.99919
だが	-7.99989
長	-8.00719
法	-8.00721
レジスタ	-8.00879
v	-8.00933
作成	-8.01178
an	-8.01219
<	-8.01273
大	-8.01928
ており	-8.02258
対象	-8.02356
にある	-8.02521
よりも	-8.02583
場合は	-8.0268
ま	-8.02884
演算	-8.02897
▁「	-8.04003
時	-8.04116
領域	-8.0475
z	-8.05097
処理系	-8.05185
コマンド	-8.05225
え	-8.05273
別の	-8.0531
プロジェクト	-8.05345
用の	-8.05756
見	-8.06188
することで	-8.06285
Visual	-8.06292
本	-8.06371
アドレス	-8.06473
意味	-8.06699
全ての	-8.06761
特定の	-8.06837
言語では	-8.06908
非	-8.07141
code	-8.0769
と呼ぶ	-8.07829
規則	-8.08008
め	-8.08425
;	-8.08476
制約	-8.08573
方	-8.09481
られる	-8.09595
コンポーネント	-8.09707
マシン	-8.09761
他	-8.09848
フレームワーク	-8.102
機械語	-8.10213
ゲーム	-8.10629
み	-8.10875
時に	-8.10952
出力	-8.11022
指定	-8.11259
手	-8.11348
プラットフォーム	-8.1147
キーワード	-8.11926
分	-8.12106
させる	-8.12236
サブルーチン	-8.12347
対応	-8.12545
パターン	-8.13201
ワード	-8.13208
*	-8.13216
内の	-8.13426
学	-8.1348
を表す	-8.13539
管理	-8.13653
リリース	-8.13667
こともある	-8.13708
le	-8.13969
オブジェクト指向	-8.14167
ar	-8.14453
任意の	-8.14669
抽象化	-8.14932
後に	-8.15135
を示す	-8.15154
再	-8.15159
の実装	-8.15267
ブ	-8.15431
型の	-8.1587
フィールド	-8.16326
系	-8.16527
it	-8.16651
のための	-8.16794
32	-8.16802
▁[	-8.1728
ことがある	-8.17619
項	-8.17658
となった	-8.17671
を使用する	-8.17922
いくつかの	-8.18153
文法	-8.18303
▁S	-8.18343
フ	-8.18781
解析	-8.19013
コードを	-8.19228
st	-8.19229
ていた	-8.19297
前	-8.19341
+	-8.1939
必要	-8.19414
社	-8.19515
っている	-8.19825
しか	-8.20217
JavaScript	-8.20516
高	-8.20694
データ型	-8.21093
下	-8.21253
としては	-8.21419
▁Java	-8.2169
全	-8.2171
パッケージ	-8.21897
に対する	-8.21908
com	-8.22014
合	-8.22233
記号	-8.22353
すること	-8.22872
数値	-8.23151
さらに	-8.23388
▁=	-8.23888
でき	-8.23973
多	-8.24035
となっている	-8.24044
設定	-8.24147
表示	-8.24148
テンプレート	-8.24168
11	-8.24407
とき	-8.24493
を含む	-8.24803
子	-8.25153
ロ	-8.25445
手続き	-8.25457
を提供する	-8.25698
内	-8.25814
いた	-8.25899
"	-8.26035
代入	-8.26048
特に	-8.26271
ユーザー	-8.2628
真	-8.26288
方式	-8.26461
制限	-8.26471
られた	-8.26735
カ	-8.26743
プログラムは	-8.26765
タ	-8.26787
利用	-8.26788
されていた	-8.26997
インスタンス	-8.27192
すると	-8.27209
サポート	-8.27587
間	-8.277
言語は	-8.27712
次の	-8.27726
選択	-8.27823
関数の	-8.27969
継承	-8.27973
デ	-8.28238
していた	-8.2834
よう	-8.28416
直接	-8.28453
12	-8.28507
作業	-8.28819
形	-8.28872
問	-8.29004
追加	-8.29889
されており	-8.29959
レ	-8.30024
&	-8.3036
最も	-8.30369
実	-8.30757
論理	-8.30922
アセンブリ言語	-8.31044
だった	-8.3135
ジ	-8.31398
データベース	-8.3153
データ構造	-8.31792
識別子	-8.31931
テキスト	-8.32175
リンク	-8.32428
プロセッサ	-8.32449
ed	-8.3246
PL	-8.32586
したり	-8.32672
列	-8.32686
う	-8.32877
アーキテクチャ	-8.32992
▁//	-8.33172
が存在する	-8.33744
LISP	-8.3455
物	-8.34554
オペレーティングシステム	-8.34608
プ	-8.34652
け	-8.34763
ことが多い	-8.35066
言語で	-8.351
例外	-8.35115
COM	-8.3512
可能な	-8.35381
適用	-8.35468
DirectX	-8.35491
よく	-8.35576
集合	-8.35609
力	-8.35858
スコープ	-8.36222
正	-8.36406
進	-8.36449
▁そのため	-8.36733
ム	-8.36788
を生成する	-8.36861
ようになった	-8.36989
公開	-8.37028
それぞれ	-8.37113
定数	-8.37211
へ	-8.37451
主	-8.37508
それを	-8.37805
ミ	-8.37812
表	-8.37902
大学	-8.37986
不	-8.38052
内で	-8.38064
定	-8.38283
}}	-8.38514
基本	-8.38625
単純な	-8.38672
呼び出し	-8.38693
▁(	-8.3872
されていない	-8.38723
製品	-8.38863
パ	-8.38883
研究	-8.39046
マ	-8.39056
度	-8.39222
別	-8.39296
ち	-8.39356
以下の	-8.39429
言	-8.39509
ズ	-8.39577
ネットワーク	-8.39606
ック	-8.39613
日本	-8.3963
エラー	-8.40076
値を	-8.40079
ter	-8.40158
記法	-8.40168
Linux	-8.40177
第	-8.40334
実行する	-8.40347
目的	-8.40388
分野	-8.40489
BASIC	-8.40755
ation	-8.40791
必要がある	-8.41005
先	-8.41102
これは	-8.41628
バ	-8.41678
発	-8.41716
入	-8.41779
げ	-8.41867
▁Framework	-8.41912
『	-8.4192
初期化	-8.42008
最初の	-8.42057
FORTRAN	-8.42141
Prolog	-8.42169
するために	-8.42307
{	-8.42371
ic	-8.42449
整数	-8.42525
各種	-8.42529
においては	-8.42548
静的	-8.42854
コードは	-8.4292
is	-8.43696
::	-8.44025
at	-8.44051
内容	-8.44207
を用いて	-8.44213
規格	-8.44265
』	-8.4428
\	-8.44419
org	-8.44525
可能	-8.44683
バイト	-8.44703
知	-8.44744
とも	-8.44811
向けの	-8.45244
例えば	-8.45285
を利用する	-8.45401
非常に	-8.45401
CPU	-8.45491
機能を	-8.45761
概念	-8.45786
機構	-8.46079
の場合	-8.46331
IBM	-8.46493
▁P	-8.46534
と同じ	-8.46618
通信	-8.46679
結果	-8.46888
目	-8.46897
なら	-8.47084
int	-8.47091
Y	-8.47301
こともできる	-8.47336
16	-8.47639
内部	-8.47886
スタイル	-8.47919
群	-8.47919
生成	-8.48139
▁\	-8.48311
解釈	-8.48337
動的	-8.48419
データを	-8.48625
のために	-8.4888
Delphi	-8.49065
属性	-8.49165
を実行する	-8.49233
Direct	-8.49371
スト	-8.49776
なかった	-8.49857
機	-8.50276
自動	-8.50318
ch	-8.50436
▁その	-8.50448
スクリプト	-8.5077
▁Basic	-8.50845
使用する	-8.5086
開発された	-8.50887
ことは	-8.50949
解	-8.50989
転送	-8.51064
すべての	-8.5107
を定義する	-8.51223
の開発	-8.51253
終了	-8.51573
外	-8.51603
Web	-8.51705
イベント	-8.51705
コメント	-8.51705
チェック	-8.51705
ず	-8.52067
性能	-8.52343
の定義	-8.52464
生	-8.52509
j	-8.52764
処理を	-8.52822
ページ	-8.53
何	-8.5304
GUI	-8.5304
Haskell	-8.53071
}	-8.53298
クラスの	-8.53434
を使った	-8.53654
コ	-8.53685
="	-8.53716
関連	-8.53823
を用いる	-8.53995
Z	-8.5406
de	-8.54258
サービス	-8.54311
比較	-8.54414
レベル	-8.54586
()	-8.54589
ダ	-8.54615
▁Windows	-8.54753
されない	-8.54836
であれば	-8.54975
Microsoft	-8.55124
if	-8.5517
構成	-8.55303
ビ	-8.55508
new	-8.55659
を扱う	-8.55686
多く	-8.5574
言語仕様	-8.55982
全体	-8.56066
元	-8.56578
になっている	-8.56653
ことになる	-8.56681
特徴	-8.56747
お	-8.56981
コピー	-8.56987
日に	-8.57167
開発者	-8.57286
モナド	-8.5747
理論	-8.57479
サーバ	-8.57562
しており	-8.57588
数学	-8.57613
プログラマ	-8.57651
新たな	-8.57667
ロード	-8.57706
リー	-8.5789
64	-8.57917
二	-8.58032
大きな	-8.5824
になった	-8.5843
▁たとえば	-8.58718
イン	-8.58743
をサポートする	-8.58757
でない	-8.58759
通	-8.58843
インターフェイス	-8.59039
コードの	-8.59106
修正	-8.59186
最	-8.5925
汎用	-8.5965
何らかの	-8.59736
区別	-8.59743
これらの	-8.59784
使う	-8.5981
構築	-8.59892
すべき	-8.60052
オブジェクトの	-8.60112
ラン	-8.60957
考え	-8.61067
量	-8.61074
Ruby	-8.6114
するための	-8.61345
れば	-8.61593
を指す	-8.61799
OpenGL	-8.61853
セット	-8.61885
の一部	-8.61899
無	-8.6198
については	-8.62008
られ	-8.62161
外部	-8.62257
かどうか	-8.62293
書	-8.62516
直	-8.62533
積	-8.62563
▁D	-8.62607
すれば	-8.62793
ベースの	-8.62876
位置	-8.62949
共通	-8.63202
チ	-8.6328
節	-8.63282
開始	-8.63393
il	-8.63551
Pascal	-8.63804
実現	-8.63826
関数を	-8.63878
々	-8.63937
メッセージ	-8.64119
一般的な	-8.64142
コンパイラは	-8.6447
組	-8.64697
確保	-8.64889
それら	-8.65066
MS	-8.65213
Perl	-8.65294
オ	-8.65344
SQL	-8.65473
んだ	-8.65504
統合	-8.65551
as	-8.65606
中に	-8.65752
所	-8.65812
▁このような	-8.65853
順序	-8.66214
構文解析	-8.66296
関数は	-8.66303
再帰	-8.66556
実行時に	-8.66556
ナ	-8.6665
中の	-8.66656
Python	-8.66843
ra	-8.66922
線	-8.66924
アセンブラ	-8.66959
以外の	-8.66994
を指定する	-8.67038
共有	-8.67086
を記述する	-8.67201
ット	-8.67327
▁これらの	-8.6736
変化	-8.67524
グ	-8.67534
体	-8.67587
以下	-8.67598
構造体	-8.67661
サイズ	-8.67712
技法	-8.67719
正規表現	-8.67723
」「	-8.67908
▁-	-8.67988
際に	-8.67991
us	-8.68312
会	-8.68321
コンストラクタ	-8.68381
全て	-8.68441
場合もある	-8.68454
符号	-8.68469
ライセンス	-8.68469
時点で	-8.68873
一部の	-8.68943
th	-8.69024
可能である	-8.69238
せ	-8.69362
ニ	-8.69415
重要な	-8.69416
ときに	-8.69446
などがある	-8.69584
抽象	-8.69847
間の	-8.69912
編集	-8.70004
ro	-8.70022
入出力	-8.70041
バー	-8.70125
動	-8.70271
だ	-8.70385
これ	-8.70508
の機能	-8.70547
パラメータ	-8.70657
インストール	-8.70738
コン	-8.70882
決定	-8.70963
える	-8.71109
付	-8.71201
結合	-8.7155
UNIX	-8.71558
!	-8.71558
フォーマット	-8.71565
名前空間	-8.71588
オープンソース	-8.716
▁一方	-8.71654
現在の	-8.7177
の中で	-8.71805
複数	-8.72029
となり	-8.72155
▁of	-8.7221
可能性	-8.72297
複雑な	-8.72489
un	-8.72529
20	-8.7258
取り	-8.72639
集	-8.72657
際	-8.72832
効率	-8.72921
ごとに	-8.73126
ストリーム	-8.73139
シンボル	-8.73139
ロック	-8.73147
付き	-8.73175
られている	-8.73205
▁A	-8.73309
el	-8.73375
影響	-8.73381
あ	-8.7343
かつ	-8.73593
解放	-8.7394
COBOL	-8.74092
▁B	-8.74094
上に	-8.74167
こ	-8.74335
||	-8.74391
もので	-8.74396
されて	-8.74563
っ	-8.74715
更新	-8.74745
Mathematica	-8.74746
年代	-8.7476
期	-8.74988
ウ	-8.75015
前に	-8.75029
利用できる	-8.75153
しなければならない	-8.75162
関数型言語	-8.75226
日本語	-8.75358
80	-8.75442
明	-8.75453
ること	-8.75483
テーブル	-8.75556
HTML	-8.75559
理解	-8.75592
]-	-8.75684
言語である	-8.75707
マイクロソフト	-8.75757
▁M	-8.75778
基本的な	-8.75791
未	-8.76303
通常の	-8.76371
GNU	-8.76378
バグ	-8.76403
一般に	-8.76503
要求	-8.7681
行う	-8.76863
説明	-8.76972
エ	-8.7701
立	-8.7711
対	-8.77123
解決	-8.77182
コーディング	-8.77206
範囲	-8.77224
の値	-8.77242
以降	-8.77268
次	-8.77294
次のような	-8.77386
自動的に	-8.77431
ur	-8.77498
ます	-8.7756
教育	-8.77724
▁L	-8.77814
以上の	-8.77828
用語	-8.77837
互換性	-8.77986
除	-8.78028
変	-8.78278
▁つまり	-8.78317
ALGOL	-8.78376
ベース	-8.7851
よい	-8.78546
空	-8.78682
初	-8.78796
クライアント	-8.78875
派生	-8.78919
リソース	-8.78943
があった	-8.79015
te	-8.79252
ライ	-8.79264
▁for	-8.79297
▁T	-8.79298
▁さらに	-8.79642
計算機科学	-8.79677
級	-8.79725
?	-8.79726
ISBN	-8.79726
上位	-8.79729
にて	-8.79828
行われる	-8.79995
スクリプト言語	-8.80118
ソース	-8.80174
ほぼ	-8.80198
存在する	-8.80276
ば	-8.80451
どの	-8.80483
む	-8.80556
タスク	-8.80574
存在	-8.80618
現在	-8.80631
新	-8.80896
ものもある	-8.81169
当	-8.81178
展開	-8.81434
▁Studio	-8.81443
ビルド	-8.81443
REDIRECT	-8.81443
データの	-8.8146
べき	-8.81549
していない	-8.81685
PC	-8.8178
▁ここで	-8.81834
Q	-8.81977
初期の	-8.82176
▁X	-8.82251
表記	-8.82295
ほか	-8.82299
継続	-8.82312
向上	-8.82386
プログラムが	-8.82913
逆	-8.83041
▁F	-8.83104
場合に	-8.83186
PHP	-8.83262
を返す	-8.83268
▁その後	-8.83632
の概念	-8.83646
採用	-8.83754
単に	-8.83841
のある	-8.83878
になり	-8.83888
Object	-8.83932
する必要がある	-8.84023
和	-8.84062
ゼロ	-8.8407
一つの	-8.84072
html	-8.84081
配置	-8.84081
を作成する	-8.84385
Fortran	-8.84698
と同様に	-8.84775
などが	-8.84855
バイナリ	-8.84967
選	-8.84967
その後	-8.84976
単位	-8.84988
▁H	-8.85129
Smalltalk	-8.85614
がない	-8.85722
IN	-8.85766
%	-8.85838
英語	-8.85885
分離	-8.85923
am	-8.86165
場合がある	-8.86449
:「	-8.86477
出す	-8.86648
仕組み	-8.86655
来	-8.86696
としても	-8.868
だけでなく	-8.8681
...	-8.86821
言語として	-8.86849
プログラミング言語の	-8.86938
使われる	-8.87437
ol	-8.87611
モ	-8.87618
保持	-8.87641
大きく	-8.87683
能力	-8.87703
op	-8.87787
を参照	-8.87796
書く	-8.87961
月に	-8.87995
ロー	-8.88295
実施	-8.88402
組み込み	-8.88453
チーム	-8.88454
オブジェクトを	-8.88556
証明	-8.88615
ほど	-8.88628
使われ	-8.88642
なければならない	-8.88659
だけで	-8.8875
プログラマー	-8.88772
▁Language	-8.88788
キー	-8.88795
実行される	-8.88806
使用される	-8.88836
付け	-8.88984
ion	-8.89073
機能は	-8.89236
メンバー	-8.89241
示	-8.89313
実際に	-8.89352
小	-8.89358
lt	-8.89426
分岐	-8.8952
まず	-8.89602
フラグ	-8.89627
60	-8.89652
MIT	-8.89663
可能性がある	-8.89749
to	-8.89895
格納	-8.90036
動作する	-8.90183
se	-8.902
などで	-8.90207
成	-8.90284
ML	-8.90419
仮想	-8.90444
im	-8.90446
状況	-8.90498
クロージャ	-8.90498
使用できる	-8.90627
型推論	-8.90635
$\	-8.90636
世界	-8.90714
作	-8.90746
IT	-8.90789
の例	-8.90794
-2	-8.91298
参加	-8.91305
><	-8.91324
地	-8.91434
企業	-8.9145
OpenCL	-8.91456
用途	-8.91469
そのまま	-8.91486
グラフィックス	-8.9149
応用	-8.91513
ター	-8.91521
内に	-8.91554
のうち	-8.91724
ると	-8.91739
これを	-8.91819
do	-8.91869
以下のように	-8.91882
ど	-8.91996
を作る	-8.92027
オブジェクト指向プログラミング	-8.92223
知識	-8.9225
重	-8.92363
約	-8.92382
理由	-8.92412
束縛	-8.92412
Forth	-8.92419
ていない	-8.92485
に変換する	-8.92724
したもの	-8.93012
論	-8.93102
そのような	-8.93223
部門	-8.93387
分類	-8.93477
それらの	-8.93616
ユーザ	-8.93784
例として	-8.93812
的には	-8.93988
テ	-8.94272
値が	-8.94326
及び	-8.94362
ソフトウェア開発	-8.94706
▁多くの	-8.95021
DOS	-8.95064
気	-8.95304
プロパティ	-8.95354
▁;	-8.95442
種類	-8.95531
と共に	-8.95628
自	-8.95701
側	-8.95738
ot	-8.96168
配布	-8.96242
であること	-8.96268
搭載	-8.96343
科学	-8.96351
ション	-8.96354
低	-8.96369
記事	-8.96381
sh	-8.96411
SE	-8.96518
実行ファイル	-8.96581
機能が	-8.96582
同時に	-8.96771
▁特に	-8.9707
種類の	-8.97087
es	-8.97132
しい	-8.97133
機械	-8.97307
提案	-8.97335
エディタ	-8.97338
そう	-8.97361
登録	-8.97362
既存の	-8.97363
ケース	-8.97364
]]	-8.97468
書き換え	-8.97537
に相当する	-8.97561
結果を	-8.9758
んで	-8.97713
▁Visual	-8.97752
▁R	-8.97879
広く	-8.97926
インターフェース	-8.97939
自身	-8.9799
なる	-8.98312
じ	-8.98318
ことから	-8.98346
原則	-8.98387
意図	-8.98395
ハ	-8.98517
するため	-8.98534
に対応	-8.98962
と同様	-8.98984
Open	-8.99393
タイプ	-8.99415
れる	-8.99447
ティ	-8.99546
論文	-8.99546
いる	-8.99557
主に	-8.99803
std	-8.9986
ランタイム	-8.9998
1.	-8.99995
登場	-9.00186
要	-9.00196
込	-9.00239
SP	-9.00243
はその	-9.00271
理	-9.00323
▁このため	-9.00325
階層	-9.00416
▁そして	-9.00424
得	-9.00443
家	-9.00445
桁	-9.00456
カーネル	-9.00457
加算	-9.0046
2.	-9.00464
サ	-9.00597
ad	-9.00617
面	-9.0083
記述する	-9.00872
を実装する	-9.00892
一般的に	-9.00931
セ	-9.01422
ボ	-9.01451
-1	-9.01463
実装されている	-9.01498
文脈	-9.0151
モード	-9.01515
本体	-9.01554
定義された	-9.01556
年から	-9.01684
などを	-9.01712
ent	-9.01761
複雑	-9.01762
以下のような	-9.01879
に使われる	-9.01886
再利用	-9.01992
グループ	-9.02086
指	-9.02101
レー	-9.02148
ことができ	-9.02472
ベ	-9.02504
場	-9.02505
▁以下の	-9.02526
すべて	-9.02564
トークン	-9.02573
null	-9.02573
デバッグ	-9.02573
年の	-9.02574
副作用	-9.02574
プログラミング言語である	-9.02637
The	-9.02652
実際の	-9.02677
導入	-9.02763
型を	-9.02775
▁Pascal	-9.02874
▁API	-9.03396
▁すなわち	-9.03529
図	-9.03611
負	-9.03641
Scheme	-9.03648
偽	-9.03648
繰り返し	-9.03648
ドキュメント	-9.03649
のコード	-9.0367
商用	-9.03714
開発環境	-9.03724
▁これにより	-9.03728
を呼び出す	-9.03738
標準化	-9.04072
せず	-9.04116
を意味する	-9.04177
▁I	-9.04182
GR	-9.04189
を直接	-9.04414
種	-9.04565
制御構造	-9.04585
三	-9.04735
▁従って	-9.04736
デフォルト	-9.04736
ノード	-9.04751
性質	-9.04801
ほとんど	-9.04811
対応する	-9.04818
プログラマが	-9.04886
次のように	-9.04939
言語に	-9.05089
簡単に	-9.05443
に対応する	-9.05461
キ	-9.05558
メ	-9.056
90	-9.05769
なければ	-9.05804
左	-9.05805
オペランド	-9.05834
資源	-9.05835
GPU	-9.05841
手段	-9.05845
Objective	-9.05846
AD	-9.0586
に含まれる	-9.05882
セル	-9.05905
19	-9.06145
同一	-9.06209
ん	-9.06319
高速	-9.0641
シェーダー	-9.06428
代数	-9.06559
以上	-9.06618
定義される	-9.06778
AT	-9.06823
国	-9.06842
はない	-9.06903
義	-9.06917
独自の	-9.06945
ガベージコレクション	-9.06945
プロトコル	-9.06946
可読性	-9.06946
1980	-9.06965
ライブラリの	-9.06971
行列	-9.07102
ローカル変数	-9.07256
省略	-9.0732
um	-9.07413
でもある	-9.07705
使える	-9.07735
意	-9.07879
並列	-9.07948
利点	-9.07961
値は	-9.08015
ソフト	-9.08061
余	-9.08068
プロシージャ	-9.08069
効果	-9.08069
コンテナ	-9.08069
space	-9.08069
色	-9.08071
類似	-9.08072
導出	-9.08134
バイトコード	-9.08376
XE	-9.08843
15	-9.08917
強	-9.08925
人間	-9.0895
▁これ	-9.09
まる	-9.09018
ものと	-9.09023
em	-9.0907
用意	-9.09133
ということ	-9.09162
ir	-9.09169
介	-9.09201
困難	-9.09205
ColdFusion	-9.09206
;//	-9.09209
を用いた	-9.09306
をサポートしている	-9.09446
必要な	-9.09452
▁2	-9.09538
全く	-9.09607
li	-9.09611
▁Programming	-9.09685
持つ	-9.10125
ソースコードを	-9.10182
プログラマは	-9.1022
ペ	-9.10294
リテラル	-9.10295
向け	-9.10297
とは異なり	-9.10355
保存	-9.10355
販売	-9.10355
描画	-9.10357
MFC	-9.1036
最小	-9.10377
を使用して	-9.1054
高い	-9.10563
グローバル変数	-9.10594
なり	-9.1063
形で	-9.10719
分け	-9.1088
RE	-9.10902
従来の	-9.10965
lib	-9.11053
続け	-9.11225
la	-9.11341
いくつか	-9.11472
意味論	-9.1151
イテレータ	-9.11517
しばしば	-9.11517
が挙げられる	-9.11518
ガード	-9.11549
仮想マシン	-9.11555
フィ	-9.11653
にする	-9.11723
lo	-9.11874
分散	-9.1239
もう	-9.12488
記	-9.12512
セキュリティ	-9.1264
ネ	-9.12656
せる	-9.12692
とともに	-9.12705
の場合は	-9.12722
を表現する	-9.12735
いう	-9.12738
たり	-9.1274
me	-9.12758
通り	-9.12852
で書かれた	-9.13011
▁K	-9.13068
主な	-9.13103
数の	-9.13265
する場合	-9.13302
ect	-9.13558
メンバ	-9.13686
代	-9.13687
向けに	-9.13791
コンテスト	-9.13861
戻り値	-9.13884
予約語	-9.13895
ラベル	-9.13896
します	-9.13899
アプリ	-9.13907
扱い	-9.1395
86	-9.14091
考	-9.14174
広	-9.14496
▁1	-9.14564
おり	-9.14589
ガ	-9.14703
▁7	-9.14706
ことである	-9.14777
AR	-9.14779
30	-9.14961
が異なる	-9.15005
ルーチン	-9.15061
頭	-9.15067
→	-9.15089
デバイス	-9.1509
ptr	-9.15126
出題	-9.15214
ング	-9.15289
を見	-9.15333
言語と	-9.15386
が追加された	-9.15427
ほとんどの	-9.15463
ものは	-9.15641
変数を	-9.15647
型システム	-9.15762
Win	-9.15794
削除	-9.15847
当時	-9.15932
であっても	-9.15941
元の	-9.15974
の仕様	-9.16016
ライブラリは	-9.16147
▁J	-9.16202
させ	-9.16233
増	-9.16252
であるため	-9.16263
id	-9.1628
が必要	-9.16287
コミュニティ	-9.16309
Android	-9.16309
世代	-9.16311
初めて	-9.1633
良い	-9.16344
それぞれの	-9.1649
あり	-9.16506
の名前	-9.16583
▁各	-9.16724
ところ	-9.16733
使	-9.16857
単純	-9.1687
段階	-9.16887
up	-9.16922
てしまう	-9.17093
取得	-9.17151
▁これを	-9.17158
を実現する	-9.17237
1.0	-9.17261
25	-9.17272
修飾	-9.17456
当初	-9.17485
▁x	-9.17486
電	-9.17505
右	-9.17531
ma	-9.17539
検索	-9.17543
シェル	-9.17543
ビュー	-9.17544
接続	-9.1755
移植	-9.17563
動的型付け	-9.17563
コンパイラが	-9.17566
コスト	-9.17582
KDE	-9.17586
使われている	-9.1771
の中に	-9.17744
です	-9.17838
置	-9.17839
多重定義	-9.17968
関数が	-9.1797
CP	-9.17974
読み	-9.17994
このような	-9.18055
で動作する	-9.18073
利用者	-9.18077
専用	-9.18196
についての	-9.18228
学生	-9.18298
q	-9.18425
ローカル	-9.18453
ack	-9.18609
連	-9.18764
に基づいて	-9.18781
IEEE	-9.18794
NaN	-9.18794
と言える	-9.18794
ジョン	-9.18795
Google	-9.18807
タグ	-9.18836
浮動小数点数	-9.18922
されること	-9.18986
コンピュータの	-9.19046
のサポート	-9.19257
問題が	-9.19261
50	-9.19418
ことにより	-9.19616
やすい	-9.20024
macOS	-9.20059
▁したがって	-9.20059
かもしれない	-9.20059
個々の	-9.2006
foo	-9.2012
パス	-9.20251
ノ	-9.20348
を持っている	-9.20405
▁G	-9.20457
ことも	-9.20535
の使用	-9.20565
">	-9.20587
lang	-9.20636
個	-9.20661
▁Prolog	-9.20779
が開発した	-9.20866
カー	-9.20971
▁10	-9.21032
ものを	-9.21178
ベクトル	-9.21341
あらゆる	-9.21341
ピ	-9.21341
2000	-9.2138
ISO	-9.21382
{{	-9.21388
In	-9.21429
そして	-9.21531
ながら	-9.21533
00	-9.2158
最初に	-9.21623
ようになっている	-9.21762
年には	-9.21774
それが	-9.21983
ow	-9.22066
co	-9.22085
▁それ	-9.22224
ることができる	-9.22379
書き	-9.22505
信	-9.22606
978-4	-9.2264
Hello	-9.2264
xml	-9.2264
トランザクション	-9.2264
必ず	-9.22641
保守	-9.22642
規定	-9.22643
終端	-9.22646
場所	-9.22661
同期	-9.22664
古い	-9.22676
適切な	-9.22684
DLL	-9.22745
オブジェクト指向言語	-9.22745
文書	-9.22781
1970	-9.22901
判断	-9.22906
改良	-9.22942
libs	-9.22997
VB	-9.23216
び	-9.23253
の研究	-9.23334
情報を	-9.2342
et	-9.23658
持	-9.23714
oc	-9.23852
原	-9.23939
引き	-9.2398
IDE	-9.24057
コー	-9.2407
計算機	-9.24075
める	-9.24094
すなわち	-9.24101
構造化	-9.2414
オー	-9.24179
for	-9.24191
型付け	-9.24261
を出力する	-9.24269
少ない	-9.24324
▁the	-9.24334
名称	-9.24448
そ	-9.24521
した場合	-9.24535
サン	-9.24621
▁Lisp	-9.24722
を持たない	-9.24764
メソッドを	-9.24965
算術	-9.25063
」、「	-9.251
システムの	-9.25106
格	-9.25153
and	-9.2516
小さな	-9.25289
カプセル化	-9.25289
▁byte	-9.25289
preserve	-9.2529
議論	-9.25293
もしくは	-9.25296
起動	-9.25305
コードが	-9.25335
項目	-9.25351
個の	-9.25358
扱う	-9.25372
doc	-9.25435
AL	-9.2546
の設計	-9.25478
その他の	-9.255
の集合	-9.25545
使用されている	-9.25821
記述できる	-9.25976
▁SDK	-9.26013
ポ	-9.26054
ラー	-9.26099
▁4	-9.26132
活用	-9.26151
ようになる	-9.26271
明示的に	-9.263
▁W	-9.26431
推論	-9.26454
取	-9.26471
残	-9.26541
値の	-9.26546
言語や	-9.26562
配	-9.26586
業	-9.26595
反	-9.26599
ディ	-9.26621
達	-9.26626
末	-9.26631
置換	-9.2664
金	-9.2664
return	-9.2664
アクション	-9.26641
Lua	-9.26641
を必要とする	-9.26649
単体テスト	-9.26661
ラムダ計算	-9.26663
正しい	-9.26673
--	-9.26695
特定	-9.26732
を得る	-9.26754
特殊な	-9.26755
XML	-9.26855
14	-9.26877
自然	-9.26987
per	-9.27039
99	-9.27087
初期	-9.27273
結	-9.27276
ive	-9.27323
一部	-9.2735
[]	-9.27403
以降の	-9.27568
を利用して	-9.27622
しても	-9.27715
番号	-9.27818
失敗	-9.27831
の一つ	-9.27847
all	-9.27921
士	-9.27966
サイト	-9.27995
賞	-9.28
シリーズ	-9.2801
認識	-9.2801
リアルタイム	-9.28011
画像	-9.28012
完全な	-9.28024
部品	-9.28032
データフロー	-9.28044
ならば	-9.28047
のデータ	-9.28162
比較的	-9.28166
一度	-9.28182
次に	-9.28188
利用される	-9.28242
os	-9.28274
▁+	-9.28286
自体	-9.28426
ものがある	-9.28446
実行できる	-9.28622
ものの	-9.28655
ール	-9.28672
いて	-9.2868
ate	-9.2872
有	-9.28753
そのもの	-9.28805
一般的	-9.28821
ho	-9.28832
常に	-9.28893
流	-9.28974
容易に	-9.29275
番	-9.29278
べ	-9.29352
減	-9.29371
自身の	-9.29376
分割	-9.29381
伝	-9.29382
在	-9.29391
オプション	-9.29399
オーバーライド	-9.29399
ファ	-9.29402
活動	-9.29405
問題を	-9.2941
1960	-9.29494
起	-9.29507
を使用した	-9.29601
レコード	-9.29604
時代	-9.2963
ce	-9.29673
が高い	-9.29785
に近い	-9.29913
発生	-9.29919
con	-9.29946
メソッドの	-9.30181
決め	-9.3019
ないし	-9.30208
自然言語	-9.30214
▁BASIC	-9.30245
ける	-9.30304
▁一般に	-9.30399
ul	-9.30594
読	-9.30595
開催	-9.30642
質	-9.30716
題	-9.30738
視	-9.30776
述語	-9.30789
端	-9.30792
アイデア	-9.30808
提供されている	-9.30808
基盤	-9.30809
Inform	-9.30813
形態	-9.30817
グラフ	-9.30819
-0	-9.30828
ラムダ式	-9.30858
標準ライブラリ	-9.30922
]])	-9.30936
コンパイル時に	-9.31003
設計された	-9.31012
ルール	-9.31056
を書く	-9.31134
人工知能	-9.31374
引数として	-9.31402
以外	-9.31528
オブジェクトが	-9.31548
利用する	-9.31555
もあり	-9.31612
コア	-9.31653
強化	-9.31678
程度	-9.31705
メタ	-9.31802
▁他の	-9.31906
196	-9.31965
停止	-9.31983
指向	-9.32153
速	-9.32186
フリー	-9.32212
足	-9.32213
の実行	-9.32217
ブラウザ	-9.3223
ユニフィケーション	-9.32236
前提	-9.32236
ね	-9.32236
Max	-9.32237
静的型付け	-9.32243
Ada	-9.32268
1990	-9.3228
発展	-9.32295
並行	-9.3237
のことである	-9.32377
ことに	-9.32405
実行環境	-9.32422
詳細	-9.32474
を使い	-9.32501
とした	-9.32508
ようにする	-9.32832
独立	-9.32861
することもできる	-9.32923
変数の	-9.33264
することを	-9.33355
▁この場合	-9.33411
を開発した	-9.3342
までの	-9.33451
art	-9.33473
使い	-9.33475
無限	-9.33608
順	-9.3362
が可能である	-9.33642
によっては	-9.33644
ウィンドウ	-9.33685
基本情報技術者試験	-9.33686
扱える	-9.33701
ホスト	-9.33703
が行われる	-9.33742
▁そのような	-9.33748
途中	-9.3377
ことによって	-9.338
させた	-9.33959
実際には	-9.3398
てきた	-9.33985
最大	-9.3407
ard	-9.34097
3.0	-9.34102
System	-9.34244
しく	-9.34371
特	-9.34431
ができる	-9.34581
方向	-9.34619
場合には	-9.34629
ta	-9.34768
なので	-9.34777
利	-9.3486
Pro	-9.3492
適	-9.34968
間で	-9.35023
難	-9.3503
応	-9.35034
合格	-9.35035
切	-9.35049
のリスト	-9.35072
止	-9.35154
期待	-9.35155
REBOL	-9.35156
ジャンプ	-9.35156
機器	-9.35168
マルチスレッド	-9.35184
UI	-9.35196
AS	-9.35208
書いた	-9.35213
2011	-9.35227
特別な	-9.35252
整数型	-9.35284
ne	-9.35369
用に	-9.35386
重要	-9.35782
の問題	-9.35809
高水準言語	-9.35832
呼び出す	-9.35833
ell	-9.35836
クラスを	-9.35912
ジェネリック	-9.3594
が可能	-9.36052
リング	-9.36091
net	-9.36274
MP	-9.3628
既に	-9.36289
渡す	-9.36424
▁Haskell	-9.36485
学習	-9.36644
^	-9.36646
以前の	-9.36649
をもつ	-9.36699
アップル	-9.36705
マッチ	-9.36799
数式	-9.36811
引数の	-9.36812
出版	-9.36905
set	-9.37061
つけ	-9.37085
実装された	-9.37112
構文木	-9.37259
渡	-9.37296
の記述	-9.37435
結果として	-9.37508
pl	-9.37514
要素の	-9.37562
化された	-9.37636
はこの	-9.37863
方法で	-9.37879
プロトタイプ	-9.38021
固定	-9.38132
とその	-9.38137
自動化	-9.38141
注意	-9.38141
シフト	-9.38163
キャッシュ	-9.38163
原因	-9.38163
訳	-9.38164
エンジン	-9.38164
Common	-9.38164
投	-9.38164
計画	-9.38167
vi	-9.38168
難しい	-9.38178
▁||	-9.38179
数字	-9.38201
次のようになる	-9.38293
out	-9.38328
マン	-9.38348
が使われる	-9.38363
実行時	-9.38439
サブ	-9.38505
レベルで	-9.38557
多数の	-9.38564
end	-9.38738
▁プログラミング言語	-9.38898
に対応した	-9.39021
形式の	-9.39037
▁6	-9.39149
行目	-9.39226
3.	-9.39241
一つ	-9.39258
構造化プログラミング	-9.39283
示す	-9.39401
関	-9.39455
無い	-9.39494
ID	-9.39513
用いられる	-9.39568
発表	-9.39676
ほうが	-9.39702
いわゆる	-9.39702
Unix	-9.39702
リファクタリング	-9.39702
LOGO	-9.39702
オーバーヘッド	-9.39703
箇所	-9.39703
番目の	-9.39705
さまざまな	-9.39727
エン	-9.39822
側の	-9.39842
例外処理	-9.39933
HSP	-9.39989
送	-9.40027
はそれぞれ	-9.4014
ak	-9.4029
移動	-9.40321
等の	-9.40424
専用の	-9.40466
後者	-9.40477
速度	-9.40491
型が	-9.40501
戦略	-9.40599
へと	-9.40613
としている	-9.40633
続	-9.40678
コンパイラの	-9.40749
oo	-9.40765
かった	-9.40842
OP	-9.4093
IP	-9.40934
開発した	-9.40943
扱	-9.41116
アプリケーションの	-9.41132
称	-9.41169
員	-9.41219
ツ	-9.41233
受	-9.41235
の方が	-9.41242
率	-9.41249
歴史	-9.41264
ステートメント	-9.41265
わけではない	-9.41293
同士	-9.41304
もっと	-9.41342
具体的な	-9.41345
方言	-9.41349
行える	-9.4142
オブジェクトは	-9.41472
遅延評価	-9.41517
説明する	-9.41719
++11	-9.4172
の内容	-9.41831
ものであり	-9.41947
組み合わせ	-9.41999
後の	-9.42056
型変換	-9.42064
仮	-9.42169
ec	-9.42365
公式	-9.42449
生成される	-9.42465
にアクセスする	-9.4249
等価	-9.42578
したものである	-9.42626
まった	-9.42702
位	-9.42765
AC	-9.42788
利用可能な	-9.42809
フレーム	-9.42843
～	-9.42851
View	-9.42852
消費	-9.42855
po	-9.42867
部分を	-9.42876
マーク	-9.42879
とも呼ばれる	-9.42906
入れ子	-9.42922
作られた	-9.42986
命令セット	-9.43021
くなる	-9.43086
呼び	-9.43091
形式で	-9.43266
年代に	-9.43306
実体	-9.43328
論理プログラミング	-9.4337
上で動作する	-9.43397
基礎	-9.43467
思	-9.4347
接	-9.43476
限定	-9.43478
ルー	-9.43485
どう	-9.43496
APL	-9.43567
これら	-9.43681
引数を	-9.43885
物理	-9.44068
ファイルを	-9.44107
グローバル	-9.44129
判定	-9.44347
NA	-9.4436
相	-9.44377
半	-9.44382
であるが	-9.44387
過	-9.44454
型は	-9.4446
台	-9.44464
平	-9.44465
有限	-9.44465
職	-9.44465
重複	-9.44467
過程	-9.44467
役割	-9.4447
多重継承	-9.44481
に関するカテゴリ	-9.44486
仮想機械	-9.44487
区切り文字	-9.44497
正しく	-9.44497
欠点	-9.44498
を備えている	-9.44534
なくなる	-9.44542
と同時に	-9.44603
ソフトウェアの	-9.44621
呼び出される	-9.4464
クラスは	-9.44676
サーバー	-9.44749
IS	-9.44858
出力する	-9.44935
get	-9.44996
だと	-9.45057
方が	-9.45168
に対応している	-9.45323
ST	-9.45461
▁System	-9.45475
が発生する	-9.45725
の拡張	-9.45784
▁8	-9.45787
レベルの	-9.45967
の一種	-9.45987
のひとつ	-9.46005
ブル	-9.46006
自由	-9.46007
age	-9.46012
Mac	-9.46045
記憶	-9.46045
話	-9.46088
任	-9.46092
戦	-9.46095
組織	-9.46103
インターネット	-9.46103
Groovy	-9.46104
Rust	-9.46104
インデックス	-9.46104
午後	-9.46104
プラグイン	-9.46104
ダイクストラ	-9.46104
擬似	-9.46105
だろう	-9.46105
の後継	-9.46105
一連の	-9.46109
空白	-9.4611
シャ	-9.4611
下記の	-9.46117
たち	-9.46132
空間	-9.46179
第一	-9.46216
与えられた	-9.46226
見られる	-9.46229
通常	-9.46247
少	-9.46295
引数に	-9.46313
のない	-9.46426
SI	-9.46463
づ	-9.46516
に対し	-9.46644
var	-9.46781
ナー	-9.46782
使われた	-9.46853
ly	-9.46914
返	-9.46925
ay	-9.46953
ファイルシステム	-9.47166
Builder	-9.47252
われる	-9.47314
の意味	-9.47427
の間に	-9.47433
変数名	-9.47598
大文字	-9.47662
せずに	-9.4767
の違い	-9.47758
車	-9.47765
高階関数	-9.47771
大きい	-9.47771
ダウンロード	-9.47776
以降は	-9.4778
最近	-9.47787
予定	-9.4779
2014	-9.47792
中間表現	-9.47811
動作させる	-9.47813
ビットの	-9.47869
Star	-9.47877
を持ち	-9.47912
▁2.0	-9.47923
Qt	-9.47952
利用可能	-9.47989
完全に	-9.48059
変数に	-9.48106
iOS	-9.48267
公開された	-9.4827
の先頭	-9.48424
研究所	-9.48618
と言う	-9.48681
を利用した	-9.48685
代わりに	-9.48858
/3	-9.48932
同様の	-9.48939
構文は	-9.48973
24	-9.48997
▁ある	-9.49062
js	-9.4909
遅延	-9.49195
著	-9.49327
保証	-9.4934
パラダイム	-9.49368
▁通常	-9.49422
ホ	-9.49444
下位	-9.49454
精度	-9.49458
役	-9.49459
Squeak	-9.49466
目標	-9.49468
ゴール	-9.49475
付加	-9.49479
194	-9.49508
Re	-9.49621
ことはできない	-9.49767
レイ	-9.49874
ライブラリである	-9.49897
流れ	-9.49959
指定された	-9.50203
char	-9.50246
ge	-9.50346
ただ	-9.50403
の利用	-9.50441
100	-9.50486
一般	-9.50618
が多い	-9.50629
ha	-9.50754
指示	-9.50863
▁2007	-9.50872
MA	-9.50953
プロ	-9.50974
今	-9.51
▁E	-9.51034
のバージョン	-9.51058
前述の	-9.51088
してしまう	-9.51093
▁N	-9.51109
乗	-9.51142
ユニット	-9.51145
バージョンは	-9.51146
調	-9.51159
デストラクタ	-9.5116
旧	-9.5119
セグメント	-9.5119
Swift	-9.5119
パフォーマンス	-9.5119
サンプル	-9.5119
ポリモーフィズム	-9.5119
分析	-9.5119
ポイント	-9.51191
統計	-9.51193
記録	-9.51193
代替	-9.51197
math	-9.51214
を行い	-9.5123
2016	-9.51239
コンテキスト	-9.51244
続く	-9.51266
かを	-9.51286
言語を	-9.5137
実用	-9.51408
▁OS	-9.51485
が用意されている	-9.51615
化する	-9.51726
からなる	-9.51753
アン	-9.51888
ものが	-9.51919
を開発	-9.51928
の要素	-9.51981
当時の	-9.52018
は一般に	-9.52162
文字列を	-9.52327
ケ	-9.52339
例は	-9.52343
書かれた	-9.52369
までは	-9.52407
環境で	-9.52544
なっている	-9.52662
▁II	-9.52689
不要	-9.52786
ワ	-9.52824
計	-9.52899
英	-9.5291
ゴ	-9.52912
権	-9.52934
バインディング	-9.52944
Scratch	-9.52944
アメリカ	-9.52945
を通して	-9.52957
並行論理プログラミング	-9.52958
国際	-9.5297
少なくとも	-9.52971
統合開発環境	-9.52973
通例	-9.53062
計算機科学者	-9.53063
を表示する	-9.53236
は全て	-9.53269
返す	-9.53323
という用語	-9.53397
方法は	-9.53435
技術者	-9.53641
しようとする	-9.53655
有効	-9.53752
An	-9.53837
77	-9.53992
を提供している	-9.5404
の種類	-9.54097
を与える	-9.54101
アセンブリ	-9.54167
することは	-9.5422
ld	-9.54245
変数は	-9.5425
区分	-9.54329
を追加する	-9.54341
13	-9.54366
安全	-9.54459
の変更	-9.54636
ダー	-9.54649
ぶ	-9.54697
DP	-9.54698
層	-9.54724
典	-9.54726
幅	-9.54726
BSD	-9.54729
割り込み	-9.54729
小さい	-9.5473
アプローチ	-9.5473
ユーティリティ	-9.5473
ウィジェット	-9.5473
総称	-9.54733
パソコン	-9.54735
を行った	-9.54742
プリプロセッサ	-9.54746
共同	-9.54756
this	-9.54782
改行	-9.54792
なくても	-9.54859
していく	-9.54875
VBA	-9.54896
ap	-9.55008
ity	-9.55024
ファイルの	-9.55034
ll	-9.55035
は通常	-9.55062
上記の	-9.55065
に必要な	-9.55077
操作を	-9.55256
Go	-9.55261
導入された	-9.55274
▁a	-9.55345
完全	-9.55615
の値を	-9.55629
最後に	-9.55671
とされる	-9.5598
ear	-9.56011
えた	-9.56041
演算子は	-9.56096
命令の	-9.5612
▁and	-9.56338
振る舞い	-9.56344
アップ	-9.56369
01	-9.56414
木	-9.5645
が必要となる	-9.56457
務	-9.56485
開	-9.56488
に応じて	-9.56502
市	-9.56536
パッチ	-9.56548
典型的な	-9.56548
省	-9.56548
資格	-9.56548
翻訳	-9.56548
コントロール	-9.56548
好	-9.56548
コレクション	-9.56549
ロボット	-9.56549
探索	-9.56549
書ける	-9.56572
単語	-9.56574
を採用している	-9.56587
DOM	-9.56605
取り入れ	-9.56636
を保持する	-9.56664
次元	-9.56703
なくなった	-9.56745
二つの	-9.56747
期間	-9.56749
上げ	-9.56893
界	-9.56916
の配列	-9.56958
言語もある	-9.56964
▁Fortran	-9.57103
できるように	-9.57144
ator	-9.57297
の特徴	-9.5736
IF	-9.57427
にして	-9.57535
回数	-9.57564
他にも	-9.57578
と呼ばれ	-9.57588
プログラミングの	-9.57635
からは	-9.5772
の結果	-9.57765
まま	-9.57798
GC	-9.57837
という名前	-9.57847
製	-9.57866
able	-9.57875
サポートされている	-9.57924
の多くは	-9.5794
の高い	-9.57941
自由に	-9.57971
版の	-9.5805
式の	-9.58058
ru	-9.58173
70	-9.58193
に関して	-9.58219
発表された	-9.58249
悪	-9.58298
割	-9.58363
退	-9.58399
@	-9.58399
MATLAB	-9.584
Class	-9.584
Office	-9.584
に由来する	-9.58401
経験	-9.58401
解説	-9.58414
合成	-9.58454
簡単な	-9.58506
移植性	-9.58533
においても	-9.58537
関係モデル	-9.58683
ことなく	-9.58755
基本的に	-9.58844
画面	-9.5906
共	-9.59131
わない	-9.59163
密	-9.59191
ジェネリックプログラミング	-9.59288
するか	-9.59383
ソースコードの	-9.59407
などでは	-9.59412
年まで	-9.59437
単一	-9.59447
ネイティブ	-9.59458
とし	-9.5946
例である	-9.59477
示した	-9.59505
17	-9.59566
本来	-9.59583
改善	-9.59615
単純化	-9.59632
▁Server	-9.59719
引	-9.59772
することが	-9.59779
ても	-9.59792
ード	-9.59968
Script	-9.59984
問題は	-9.60009
言葉	-9.6008
act	-9.60232
推	-9.60273
破棄	-9.60286
削減	-9.60286
反映	-9.60287
ジェネリクス	-9.60287
着	-9.60287
java	-9.60287
boost	-9.60288
BCPL	-9.60289
主張	-9.60292
局所	-9.60295
2012	-9.60295
試み	-9.60308
機能の	-9.60316
▁DirectX	-9.60364
は同じ	-9.60365
数が	-9.60368
するという	-9.60396
2.0	-9.60412
マイクロソフトの	-9.60448
必須	-9.60472
SL	-9.60479
は存在しない	-9.60524
jp	-9.60553
考え方	-9.60628
を生成し	-9.60681
1,	-9.60755
サー	-9.6088
動作を	-9.60966
決	-9.61059
アー	-9.61144
を決定する	-9.6123
▁このように	-9.61297
ことを意味する	-9.61365
独立した	-9.61372
アプリケーション開発	-9.61646
▁3	-9.6172
命令は	-9.61761
サブクラス	-9.61794
近	-9.61795
引数が	-9.61815
を変更する	-9.61838
の文法	-9.61927
言語が	-9.6211
)$	-9.62111
許	-9.62173
にとって	-9.62191
倍	-9.62202
合わせ	-9.62204
ザ	-9.62208
極めて	-9.62209
衝突	-9.6221
▁world	-9.6221
▁754	-9.6221
そういった	-9.6221
に依存する	-9.6221
ステップ	-9.6221
顧客	-9.6221
TypeScript	-9.62215
容量	-9.62217
をとる	-9.62218
2018	-9.62224
込む	-9.62227
被演算子	-9.62249
2005	-9.62269
うる	-9.6227
体系	-9.62291
特性	-9.62323
2010	-9.62329
は常に	-9.62403
かなり	-9.62454
することはできない	-9.62478
追加された	-9.6255
へのアクセス	-9.62564
どこ	-9.62616
ガー	-9.62706
ver	-9.6284
相当	-9.62863
年度	-9.62892
それに	-9.62968
のではなく	-9.62996
単一の	-9.62998
条件式	-9.63022
同様に	-9.63045
意味で	-9.63093
リリースされた	-9.63121
▁Data	-9.63187
▁2008	-9.63346
▁コンパイラ	-9.63483
とされている	-9.63496
始め	-9.63534
一般化	-9.6355
▁11	-9.63756
関数型	-9.63765
ここで	-9.63788
現	-9.63916
観	-9.63951
io	-9.63995
公	-9.64011
らない	-9.64019
先頭	-9.64038
これが	-9.64059
現在は	-9.64078
中心	-9.64095
▁O	-9.64141
の代わりに	-9.64149
音	-9.64164
依存関係	-9.6417
に基づく	-9.6417
ギ	-9.64171
Oberon	-9.64171
曲	-9.64172
1983	-9.64173
入門	-9.64176
GLSL	-9.64177
検出	-9.64196
運用	-9.64215
するには	-9.64218
発見	-9.6428
の呼び出し	-9.643
▁COM	-9.64303
の動作	-9.64341
VM	-9.64396
ac	-9.64404
設計者	-9.64412
近年	-9.64436
2001	-9.646
処理が	-9.64637
関数型プログラミング	-9.64637
続ける	-9.64711
を可能にする	-9.64712
行われ	-9.64743
毎に	-9.64777
上記	-9.64808
評価される	-9.64868
も存在する	-9.64897
の両方	-9.65064
例では	-9.65141
文を	-9.65149
を受け	-9.65303
時の	-9.65429
確認	-9.65441
にした	-9.65619
動的に	-9.65642
log	-9.65666
完成	-9.657
hi	-9.65725
言語であり	-9.65941
ON	-9.65943
に適用	-9.65957
がリリースされた	-9.66003
などに	-9.6603
マルチ	-9.66064
の範囲	-9.66072
確	-9.66105
算	-9.66114
予	-9.66123
差	-9.66131
保	-9.66138
デザイン	-9.66141
階	-9.66152
案	-9.66167
提唱	-9.6617
を考慮	-9.6617
リフレクション	-9.6617
ディスク	-9.66171
田	-9.66172
課題	-9.66174
ドライバ	-9.66177
回路	-9.66182
数学的	-9.66182
作品	-9.66183
構文解析器	-9.66185
▁以下に	-9.66205
手順	-9.66213
修飾子	-9.66214
元々	-9.66223
定め	-9.66269
源	-9.66314
の宣言	-9.66318
ためである	-9.66354
自分	-9.66442
もあった	-9.66504
どのように	-9.66509
ide	-9.66567
既	-9.66654
▁もし	-9.66658
プロジェクトの	-9.66728
とは異なる	-9.66761
をサポート	-9.66826
ACM	-9.66827
中で	-9.66989
ウェブ	-9.6706
の追加	-9.67061
値を返す	-9.67068
ess	-9.67072
リストを	-9.6716
大な	-9.67174
のインスタンス	-9.67198
ひとつの	-9.67313
人間が	-9.67485
マイクロソフトは	-9.67551
▁そこで	-9.67844
親	-9.67853
つか	-9.67946
素	-9.68053
に変更	-9.68136
をより	-9.68153
行われている	-9.68157
前の	-9.6818
コンピューティング	-9.682
Unicode	-9.68211
極	-9.68211
落	-9.68211
Intel	-9.68212
Vulkan	-9.68212
ロジック	-9.68212
強力な	-9.68212
`	-9.68212
献	-9.68212
専門	-9.68212
基準	-9.68217
参照カウント	-9.68218
安定	-9.68223
連続	-9.68226
コマンドライン	-9.68232
を満たす	-9.68236
4.0	-9.68251
順次	-9.68251
のいずれか	-9.68253
ソン	-9.68269
カード	-9.68307
JIS	-9.68332
小文字	-9.68342
最終的に	-9.68365
ファイル名	-9.68371
ためには	-9.68461
彼	-9.68462
ひとつ	-9.6855
ないため	-9.68558
ソースファイル	-9.68566
終了する	-9.68637
両方	-9.68641
求め	-9.6866
が必要である	-9.68727
スター	-9.6873
無く	-9.6874
従	-9.68788
関数呼び出し	-9.68828
高速化	-9.68885
人の	-9.68961
に似た	-9.68981
パイプライン	-9.69161
年間	-9.69168
を作成し	-9.69184
形式言語	-9.69393
支援	-9.69417
に用いられる	-9.69424
)|	-9.69432
コンパイル時	-9.69448
▁逆に	-9.69492
GL	-9.69501
データは	-9.69526
戻	-9.6957
に格納	-9.69646
るため	-9.69659
するような	-9.69881
HP	-9.69882
▁これら	-9.69943
/2	-9.69946
演算子を	-9.70059
弱	-9.70195
を提供し	-9.70202
グラフィック	-9.7021
▁これらは	-9.7021
型の値	-9.70233
ment	-9.70268
楽	-9.70288
装置	-9.70293
圧縮	-9.70294
軽量	-9.70295
レンダリング	-9.70295
逐次	-9.70295
Apache	-9.70295
シングル	-9.70295
コントローラ	-9.70296
できるようにする	-9.70303
2017	-9.70314
ベンダー	-9.70315
知られている	-9.70316
ドメイン	-9.70326
表現できる	-9.70331
こう	-9.70358
が含まれる	-9.70391
が容易	-9.70416
動く	-9.7048
言語機能	-9.70522
ex	-9.70541
中間	-9.70564
へのポインタ	-9.70573
を使っている	-9.7061
したい	-9.70665
CL	-9.70695
ort	-9.70781
2007	-9.70874
を取り	-9.70953
大学の	-9.71097
は以下の	-9.71203
かけ	-9.71245
として扱う	-9.71253
pro	-9.71299
実数	-9.71359
言語など	-9.7161
他の言語	-9.71671
LE	-9.71771
任意	-9.71804
を構築する	-9.71898
文の	-9.71898
呼ばれる	-9.71944
▁Microsoft	-9.71978
プログラミング言語において	-9.72015
ab	-9.72052
by	-9.72141
のこと	-9.72175
現在では	-9.72182
えて	-9.72225
を作り	-9.72292
号	-9.72369
をする	-9.72369
ぎ	-9.72374
連携	-9.72378
論理的	-9.72391
帰	-9.72391
渡し	-9.72394
件	-9.72407
順に	-9.72416
水	-9.72417
防	-9.72421
HLSL	-9.72422
教授	-9.72422
ターゲット	-9.72422
リターン	-9.72422
どんな	-9.72422
キュー	-9.72423
タイミング	-9.72423
ヴィルト	-9.72423
破	-9.72423
デリゲート	-9.72423
ビジネス	-9.72423
都	-9.72423
定義できる	-9.72425
goto	-9.72433
要件	-9.72435
端末	-9.72437
生じ	-9.72442
しやすい	-9.72464
まだ	-9.72488
有用	-9.72513
両者	-9.7254
多くの場合	-9.7255
1996	-9.72556
切り	-9.72558
▁この例では	-9.72566
処理の	-9.72615
を使うことで	-9.72689
渡される	-9.72736
▁以下は	-9.72794
動的な	-9.72801
同社	-9.72902
2015	-9.7291
の組み合わせ	-9.72956
OR	-9.72999
短	-9.731
イス	-9.7312
▁5	-9.73172
異	-9.73196
部分は	-9.73213
類	-9.73351
行われた	-9.73475
の名称	-9.73501
アル	-9.73605
面で	-9.73657
メソッドは	-9.73829
似	-9.73848
の内部	-9.73873
を備え	-9.73922
ライブラリを	-9.73998
プログラミング言語では	-9.74141
終	-9.74259
出来	-9.74373
改	-9.74457
現代	-9.7453
対話	-9.74552
補	-9.7456
可能であり	-9.74563
包	-9.7457
優	-9.74571
準	-9.7458
圏	-9.74583
改訂	-9.74595
コンセプト	-9.74596
release	-9.74596
比	-9.74596
フロントエンド	-9.74597
傾向	-9.74597
タプル	-9.74597
▁:;:	-9.74598
将来	-9.74605
注目	-9.74615
キャスト	-9.74616
を求める	-9.74625
電子	-9.74635
出現	-9.7464
命令を	-9.74663
▁Re	-9.74667
生まれた	-9.74688
0%	-9.74702
フリーソフトウェア	-9.74724
代表的な	-9.74743
大規模な	-9.74761
add	-9.7477
かつて	-9.74836
レン	-9.74837
システムは	-9.74838
-8	-9.74923
は他の	-9.74966
一種の	-9.74988
強い	-9.75157
実行時の	-9.75226
スーパークラス	-9.75249
処理を行う	-9.75291
ものとして	-9.75344
></	-9.75471
仮引数	-9.75503
作成された	-9.75529
を用い	-9.75739
何も	-9.75765
LL	-9.75932
中間言語	-9.76062
に従って	-9.76171
開発者が	-9.76177
参照型	-9.76204
gen	-9.76349
の表現	-9.76463
wa	-9.76494
要素を	-9.76539
98	-9.76552
容易	-9.76564
大会	-9.76664
28	-9.76683
並	-9.76707
加	-9.76744
キャ	-9.76782
マイクロ	-9.76782
試	-9.76786
修	-9.76795
デジタル	-9.76817
リモート	-9.76818
バックエンド	-9.76818
JSON	-9.76819
Modula	-9.76819
角	-9.76819
字下げ	-9.76819
メモ化	-9.76819
午前	-9.76819
エクストリーム	-9.7682
無効	-9.76821
書籍	-9.76822
新たに	-9.76823
ジャ	-9.76824
制度	-9.76831
言えば	-9.76837
原理	-9.76839
Core	-9.76841
込み	-9.76845
内包	-9.76845
最後の	-9.76855
const	-9.76862
無限ループ	-9.76886
主要な	-9.76921
と呼ばれている	-9.76933
2004	-9.76936
行番号	-9.76941
高度な	-9.76951
OLE	-9.76959
モン	-9.76987
含まれ	-9.76987
生成規則	-9.77
単一化	-9.77039
いずれも	-9.77064
結果は	-9.77089
カル	-9.77115
重視	-9.77168
者が	-9.77182
ランタイムシステム	-9.77227
その結果	-9.77256
公開されている	-9.77274
前者	-9.77334
置き換え	-9.77482
27	-9.77534
者は	-9.77539
機能を提供する	-9.7755
▁2003	-9.77626
ある程度	-9.77663
の値が	-9.77769
風の	-9.77773
レット	-9.7778
を以下に示す	-9.77798
ニー	-9.77803
内部で	-9.77894
▁2006	-9.7795
ていった	-9.77988
しかない	-9.77992
▁次の	-9.78027
結果が	-9.78132
割り当て	-9.78172
特殊	-9.78399
ックス	-9.78589
ip	-9.78614
相互	-9.78618
ことを示す	-9.78626
系の	-9.78662
経	-9.7868
の際に	-9.78688
を参照する	-9.78764
インスタンス化	-9.78821
ものに	-9.78827
開発されている	-9.78827
たもの	-9.78847
最終	-9.7886
暗黙の	-9.78887
頃	-9.7889
lex	-9.78892
無視	-9.78907
商	-9.78941
で使われる	-9.78957
得られる	-9.78972
連結	-9.79005
ユーザーが	-9.7903
域	-9.79035
同等	-9.79077
囲	-9.79077
句	-9.79087
細	-9.79089
飛	-9.79091
で始まる	-9.79091
違う	-9.79091
シミュレーション	-9.79092
糖衣構文	-9.79092
宇宙	-9.79093
暗号	-9.79093
GHC	-9.79096
補助	-9.79096
倍精度	-9.79098
否定	-9.79099
増加	-9.79102
送信	-9.79105
数は	-9.79119
組み	-9.79147
ケン	-9.79182
わけ	-9.79234
を使用している	-9.79243
ない場合	-9.79262
List	-9.79337
小数	-9.79341
が可能となる	-9.79393
メモリ領域	-9.79476
用いる	-9.79561
実引数	-9.79567
は非常に	-9.796
GCC	-9.79648
自体は	-9.79669
ここ	-9.79685
式を	-9.79688
っていない	-9.7972
を適用する	-9.79723
が無い	-9.79724
製作	-9.79741
品	-9.79745
iv	-9.79767
しようと	-9.79898
固有の	-9.7992
RT	-9.79992
を構成する	-9.80064
si	-9.80124
ers	-9.8028
するのは	-9.80285
に加えて	-9.80446
の状態	-9.80534
の生成	-9.80586
を開発する	-9.80601
▁0	-9.80603
づけ	-9.80798
py	-9.80909
も多い	-9.80942
リストの	-9.80954
▁V	-9.81103
を計算する	-9.81136
いている	-9.81189
検証	-9.81195
導	-9.81246
ないので	-9.81283
採	-9.81316
工学	-9.81326
man	-9.81361
工	-9.81373
離	-9.81385
消	-9.81389
演	-9.81408
道	-9.81413
組み込まれ	-9.81416
こちら	-9.81417
に基づいた	-9.81417
リエントラント	-9.81417
アクセサ	-9.81417
クヌース	-9.81417
sign	-9.81417
であろう	-9.81417
文脈自由文法	-9.81417
かかる	-9.81417
function	-9.81417
セクション	-9.81417
POSIX	-9.81417
while	-9.81417
口	-9.81417
Parrot	-9.81418
ボタン	-9.81418
解答	-9.81419
音楽	-9.81426
VBScript	-9.81429
レイヤー	-9.81432
済み	-9.81432
スペース	-9.81436
多相	-9.81437
デザインパターン	-9.81451
の基本	-9.81461
オープンソースの	-9.81487
と同様の	-9.81495
ure	-9.81498
暗黙	-9.81525
作用	-9.81542
基底クラス	-9.81611
AI	-9.81831
Bot	-9.81879
として扱われる	-9.81885
以降では	-9.8191
登場した	-9.82029
リア	-9.82211
インライン	-9.82304
変数が	-9.82451
-3	-9.82568
言う	-9.82585
教	-9.82618
▁ここでは	-9.82642
ine	-9.82831
社の	-9.82878
に用いる	-9.82896
▁195	-9.83034
コンピューター	-9.8309
言語処理系	-9.83102
手続き型言語	-9.83105
想定	-9.83305
あまり	-9.83317
23	-9.83333
mod	-9.8336
整	-9.83566
純粋	-9.83586
ボックス	-9.8362
といったような	-9.83626
値に	-9.83639
だけである	-9.83692
に準拠	-9.83711
type	-9.83797
スレッデッドコード	-9.83798
信頼性	-9.83798
カリー化	-9.83798
頻繁に	-9.83798
マッピング	-9.83798
サイクル	-9.83798
ラッパー	-9.83798
RAII	-9.83799
電卓	-9.83799
AMD	-9.83801
コール	-9.83802
競合	-9.83809
設立	-9.83809
十進	-9.83809
ワーク	-9.83823
機関	-9.83829
統一	-9.83844
アドレス空間	-9.83844
2020	-9.83849
1994	-9.83854
書き方	-9.83884
ことはない	-9.83993
未定義	-9.84019
会議	-9.84034
ことが出来る	-9.84121
成功	-9.84158
GObject	-9.84159
▁Python	-9.84174
単	-9.84199
II	-9.8428
意識	-9.84288
両	-9.84304
区	-9.84306
の最初の	-9.84412
派生クラス	-9.84501
ケイ	-9.8453
への参照	-9.84578
があるが	-9.84592
ou	-9.84699
割り当てられ	-9.84723
読み書き	-9.84801
Lisp	-9.84823
一方	-9.8483
2008	-9.84839
新機能	-9.8491
IC	-9.85005
アプリケーションソフトウェア	-9.85138
22	-9.85246
3.1	-9.85446
リセット	-9.85459
入れ	-9.85533
関数や	-9.85602
時間を	-9.85605
プリミティブ	-9.85631
の出力	-9.85646
になって	-9.85716
に加え	-9.8573
基	-9.85826
の詳細	-9.85833
▁クラス	-9.85932
器	-9.85979
するのに	-9.86006
しておく	-9.86128
ソ	-9.86168
▁一方で	-9.86197
▁2005	-9.86205
字句	-9.86213
▁Forth	-9.86221
創	-9.86234
駆動	-9.86236
Macintosh	-9.86237
トレイト	-9.86237
把握	-9.86237
Dojo	-9.86237
class	-9.86237
ヴ	-9.86237
初心者	-9.86237
ヒアドキュメント	-9.86237
山	-9.86237
ソート	-9.86238
世界初の	-9.86239
認定	-9.86239
対処	-9.8624
許可	-9.86243
並行制約プログラミング	-9.86244
学校	-9.86246
中断	-9.86268
必要に応じて	-9.863
が含まれている	-9.863
量子	-9.86329
one	-9.8633
CLI	-9.86363
人々	-9.86369
date	-9.86397
会社	-9.86413
def	-9.86475
40	-9.86491
数学の	-9.86493
に依存しない	-9.86512
の振る舞い	-9.86512
18	-9.86513
無名関数	-9.8661
▁Delphi	-9.86633
list	-9.86727
ようになり	-9.86808
ランタイムライブラリ	-9.86815
▁IBM	-9.87032
事前に	-9.87129
何か	-9.87252
それは	-9.87282
書いて	-9.87298
の間で	-9.87335
られない	-9.87348
SDK	-9.87389
たとえば	-9.87412
従来	-9.8743
を考える	-9.87459
を与え	-9.87465
のに対し	-9.87476
表現する	-9.87529
という意味	-9.87534
==	-9.87539
▁第	-9.87588
▁ALGOL	-9.8772
を追加した	-9.87832
多重	-9.87916
▁to	-9.87977
195	-9.88021
だったが	-9.88049
仮想関数	-9.88055
で表される	-9.88238
mi	-9.88416
しながら	-9.88437
指定した	-9.88477
29	-9.88508
年現在	-9.88555
一方で	-9.88674
クリ	-9.88699
担	-9.8872
替	-9.88722
照	-9.88736
批判	-9.88736
撃	-9.88736
ASCII	-9.88737
Boost	-9.88737
切り替え	-9.88737
返り値	-9.88737
厳	-9.88737
を通じて	-9.88737
責任	-9.88737
星	-9.88737
大幅に	-9.88738
double	-9.88738
Box	-9.88738
あらかじめ	-9.88738
競技	-9.88739
優先	-9.8874
策定	-9.88743
検定	-9.88744
品質	-9.88747
作成した	-9.88752
Apple	-9.88753
受賞	-9.88753
6.0	-9.88757
読む	-9.88764
現実	-9.88769
んでいる	-9.8877
仕事	-9.88774
低下	-9.88805
使われていた	-9.88814
STL	-9.88832
安全性	-9.88859
それ以外	-9.88867
プログラミングパラダイム	-9.88872
ag	-9.88917
うち	-9.88963
に関しては	-9.88996
▁LISP	-9.89051
採用されている	-9.89059
ることで	-9.89061
あって	-9.89096
ユーザー定義	-9.8912
DO	-9.89168
ry	-9.89206
マイ	-9.89222
開発され	-9.89291
ドル	-9.89322
が同じ	-9.89401
されず	-9.89458
直後	-9.89564
並列処理	-9.8969
どちらも	-9.89739
側で	-9.89766
▁XP	-9.89816
少なく	-9.89865
ローダ	-9.89939
lic	-9.89974
式は	-9.90014
プレ	-9.90213
2006	-9.90274
機能である	-9.90323
IO	-9.905
cl	-9.90523
チャ	-9.90777
に格納する	-9.90894
ソースコードは	-9.90955
ハー	-9.9097
用いられ	-9.91024
オブジェクトに	-9.91057
大規模	-9.91134
Unit	-9.91145
内容が	-9.91149
が存在し	-9.9115
注	-9.91166
▁同様に	-9.91234
想	-9.91242
フォー	-9.91278
測	-9.91288
Type	-9.91294
支	-9.913
エンジニア	-9.913
バッファ	-9.913
禁止	-9.91301
海	-9.91301
厳密に	-9.91301
柔軟性	-9.91301
ECMAScript	-9.91301
Standard	-9.91301
稼	-9.91301
▁Edition	-9.91301
と異なり	-9.91301
シグナル	-9.91301
カスタマイズ	-9.91301
東京	-9.91302
獲得	-9.91303
MIX	-9.91303
を除き	-9.91304
PDF	-9.91304
無料	-9.9131
ウェブブラウザ	-9.91312
読み込み	-9.91314
業務	-9.91314
tor	-9.91317
思考	-9.91319
小さく	-9.9132
電気	-9.91328
に似ている	-9.91346
優先順位	-9.91362
彼ら	-9.91371
受験者	-9.91373
書かれている	-9.91374
IDL	-9.91402
ance	-9.91422
▁95	-9.91424
今日	-9.91431
一意	-9.91464
1997	-9.91474
さえ	-9.91533
という言葉	-9.91599
書式	-9.9165
論理式	-9.91685
ずつ	-9.91711
から構成される	-9.91739
個別	-9.91758
を制御する	-9.91793
必ずしも	-9.9188
していたが	-9.91886
値渡し	-9.91891
プログラミング言語として	-9.91991
プログラム言語	-9.9211
ble	-9.92148
実行可能	-9.92179
▁2009	-9.92309
を行なう	-9.92321
の一部として	-9.92348
できた	-9.92368
プロセスの	-9.92396
ave	-9.92411
form	-9.92439
DB	-9.92471
の位置	-9.92488
を利用できる	-9.9249
▁実際	-9.92501
得る	-9.9257
__	-9.92606
単純に	-9.92704
▁FORTRAN	-9.92889
の基礎	-9.92918
ってしまう	-9.92955
ということである	-9.92985
try	-9.93123
PE	-9.93134
の考え方	-9.93232
コードを生成する	-9.93392
となって	-9.93414
なお	-9.93498
用意されている	-9.93506
に依存し	-9.93542
というような	-9.93605
設計されている	-9.93614
実装は	-9.93621
を実行し	-9.93622
強制	-9.93637
アクセスできる	-9.93646
浮動小数点	-9.93661
ial	-9.93669
能	-9.93773
ことも可能である	-9.93868
欠	-9.93873
心	-9.9389
マー	-9.93892
カテゴリ	-9.93899
pt	-9.93909
UT	-9.93915
ひ	-9.93923
▁上記	-9.93927
満	-9.93927
ジェネレータ	-9.93929
添字	-9.93931
ヌ	-9.93932
コミット	-9.93932
ニーモニック	-9.93933
万	-9.93933
index	-9.93933
とは限らない	-9.93933
エディション	-9.93933
テクニック	-9.93933
〜	-9.93933
複素数	-9.93933
Octave	-9.93933
Planner	-9.93933
許容	-9.93936
に特化した	-9.93939
1985	-9.93939
成果	-9.9394
▁9	-9.93941
階乗	-9.93943
信号	-9.93944
単なる	-9.93946
クロスプラットフォーム	-9.93956
Wolfram	-9.93964
の指定	-9.93967
一覧	-9.93968
先読み	-9.93981
oncurrent	-9.93983
非同期	-9.93998
時刻	-9.94015
用いられている	-9.94028
▁彼は	-9.94041
2002	-9.94048
をベースに	-9.94057
ボックス化	-9.94144
第二	-9.94174
よ	-9.94196
見出し	-9.94246
ミス	-9.94343
与え	-9.94398
ref	-9.94431
場合でも	-9.94467
観点	-9.94489
によって開発された	-9.94503
]</	-9.94513
する際	-9.94528
▁Perl	-9.94582
26	-9.9459
長い	-9.94623
型宣言	-9.94722
再帰的	-9.94811
研究者	-9.9487
生成する	-9.95023
どのような	-9.95204
以外に	-9.95253
呼出し	-9.95258
ことができた	-9.95271
プログラムに	-9.95284
する事	-9.95289
情報処理	-9.95407
インタプリタは	-9.95429
の一つである	-9.95506
が存在しない	-9.95542
プリ	-9.95569
さない	-9.95601
pre	-9.95644
で記述する	-9.9567
呼ぶ	-9.95679
ok	-9.95738
それらを	-9.95739
文は	-9.95766
機能を持つ	-9.95788
▁最初の	-9.95791
ff	-9.959
プログラミングは	-9.95966
ことも多い	-9.96031
できず	-9.96049
▁主に	-9.96114
後で	-9.96253
にマッチする	-9.96308
推奨	-9.96348
を記述し	-9.9638
検査	-9.9644
に変換し	-9.96496
違いは	-9.96539
為	-9.96558
ご	-9.96569
可	-9.96585
だけを	-9.96585
説	-9.96599
ていく	-9.96599
Free	-9.9663
×	-9.96635
ヒープ	-9.96635
オーバーロード	-9.96635
バッカス	-9.96635
▁Vista	-9.96636
ヘ	-9.96636
歳	-9.96636
ヒ	-9.96636
委員会	-9.96636
買	-9.96636
保護	-9.96636
検討	-9.96636
走	-9.96636
File	-9.96638
オンライン	-9.96638
パターンマッチング	-9.96644
ウェブサイト	-9.96649
順番	-9.96653
同時	-9.96658
出来る	-9.96659
ある種の	-9.96665
通知	-9.96722
ユーザインタフェース	-9.96732
オリジナルの	-9.96733
条件分岐	-9.96738
利用されている	-9.96741
ach	-9.96758
>[	-9.96775
ときは	-9.96841
XL	-9.96879
メイン	-9.96895
ていなかった	-9.96896
チューリング完全	-9.96902
配布されている	-9.96944
失敗する	-9.96966
提供する	-9.97008
0000	-9.97018
概念である	-9.97024
リンカ	-9.971
高速な	-9.97114
これらは	-9.97219
先に	-9.97228
人が	-9.97242
tri	-9.97271
二進	-9.97276
例としては	-9.97285
▁Smalltalk	-9.97407
させること	-9.97544
などといった	-9.97578
を定義した	-9.976
の一種である	-9.9761
を同時に	-9.97631
変化する	-9.97654
AN	-9.97667
を操作する	-9.97802
サポートする	-9.97824
ant	-9.97827
bar	-9.97833
トリ	-9.97908
スタックに	-9.97915
バージョンの	-9.97956
などは	-9.98065
プログラムでは	-9.98093
逆に	-9.98152
ist	-9.98248
以降で	-9.98263
定義されている	-9.98332
2009	-9.98367
関数である	-9.98408
name	-9.98477
of	-9.98485
▁バージョン	-9.98682
ME	-9.98726
▁2015	-9.98822
持っている	-9.98859
えば	-9.98905
書き換える	-9.98922
プログラマの	-9.98953
を実装した	-9.99003
記述言語	-9.99037
簡潔	-9.99082
する方法	-9.99087
廃止	-9.99092
表示される	-9.99141
化した	-9.99163
が行われ	-9.99258
間接	-9.99387
自己	-9.994
根	-9.99409
雑	-9.9941
Link	-9.99413
冗	-9.99413
多態性	-9.99413
秒	-9.99413
メンテナンス	-9.99413
補完	-9.99413
▁Library	-9.99413
タイピング	-9.99414
財団	-9.99414
▁Computer	-9.99415
RPG	-9.99415
高級言語	-9.99416
の補数	-9.99419
予測	-9.99421
1987	-9.99424
と比較して	-9.99427
現れる	-9.99432
書き込み	-9.99441
社員	-9.99463
よく使われる	-9.99486
1999	-9.99488
UTF	-9.99502
動き	-9.99547
を導入した	-9.99566
を実装している	-9.99592
sub	-9.99634
標準規格	-9.99661
することができ	-9.99698
開催された	-9.99743
を開発し	-9.99748
共通の	-9.99754
21	-9.99761
を指定し	-9.99789
を取る	-9.99805
データセット	-9.99837
の長さ	-9.99837
目的で	-9.99876
tt	-9.99935
チャー	-9.99978
したりする	-9.9999
産業	-9.99996
付与	-10.0001
Com	-10.0005
値型	-10.0006
メソッドが	-10.0007
が必要な	-10.0009
ライブラリとして	-10.0012
▁2013	-10.0028
2003	-10.0036
qu	-10.0037
システムでは	-10.0044
という意味で	-10.0051
リン	-10.0055
したとき	-10.0058
」-	-10.0072
データメンバ	-10.0087
されてきた	-10.0091
まとめ	-10.0091
各要素	-10.01
についても	-10.0108
プロセスが	-10.0115
っていた	-10.0118
はほとんど	-10.0118
プログラムを書く	-10.0122
固有	-10.0124
いつ	-10.0125
と呼び	-10.0125
Model	-10.0126
つまり	-10.0131
データが	-10.0132
点で	-10.0137
通常は	-10.0161
の前に	-10.0161
事前	-10.0163
ang	-10.0171
コンパイラ最適化	-10.0172
実現できる	-10.0173
アルゴリズムを	-10.0177
を管理する	-10.0181
同一の	-10.0184
高く	-10.0205
できなかった	-10.0206
持ち	-10.0208
字	-10.0211
DX	-10.0216
命	-10.022
\,	-10.022
断	-10.0223
段	-10.0223
ぐ	-10.0227
微	-10.0227
を回避する	-10.0227
セレクタ	-10.0227
World	-10.0227
テクノロジ	-10.0227
マネージ	-10.0227
教科書	-10.0227
モデリング	-10.0227
横	-10.0227
static	-10.0227
コンテンツ	-10.0227
タートル	-10.0227
フォント	-10.0227
センター	-10.0227
Adobe	-10.0227
以前は	-10.0227
難易度	-10.0227
フェロー	-10.0227
▁License	-10.0227
Mesa	-10.0227
正確に	-10.0227
無償	-10.0227
といえる	-10.0228
記憶域	-10.0228
チューリングマシン	-10.0228
ゼロ除算	-10.0228
に基づいている	-10.023
大域	-10.0231
else	-10.0232
生産性	-10.0232
機種	-10.0233
命名	-10.0233
起き	-10.0235
必要はない	-10.0235
5.0	-10.0235
▁2012	-10.0236
現行	-10.0238
自分自身	-10.024
弱い	-10.0241
メン	-10.0241
されます	-10.0243
はならない	-10.0245
制作	-10.0245
最初	-10.0254
ならず	-10.0254
でなければならない	-10.0256
当て	-10.0256
の知識	-10.026
パン	-10.0263
をそのまま	-10.0263
空文字列	-10.0264
必要があり	-10.0265
構成要素	-10.0265
関数の引数	-10.0269
bit	-10.0276
▁y	-10.0277
利用可能である	-10.0282
対象となる	-10.029
▁例として	-10.0304
▁2019	-10.0305
すでに	-10.0312
は以下のようになる	-10.0315
ていれば	-10.0318
付けられた	-10.0326
で表現する	-10.0336
出した	-10.034
MBASIC	-10.0341
しつつ	-10.0342
が可能な	-10.0347
gr	-10.0347
クラスに	-10.0348
プログラムを記述する	-10.0353
プロセスを	-10.0361
実装した	-10.0367
XP	-10.0367
line	-10.0371
もサポート	-10.0387
常	-10.0387
▁初期の	-10.0398
テンプレートは	-10.0401
マス	-10.0411
Spring	-10.0429
型変数	-10.043
2013	-10.0433
派生型	-10.0434
が可能になる	-10.0439
が追加され	-10.0449
失	-10.0453
これまで	-10.0454
ものであった	-10.0456
たりする	-10.0458
は全く	-10.0459
cs	-10.0463
前後	-10.0466
map	-10.0467
ve	-10.0473
自分の	-10.0478
にも対応	-10.0479
指定する	-10.0496
、<	-10.0503
変更された	-10.0505
発売	-10.0506
Inc	-10.0509
区切り	-10.0516
単体	-10.0519
特別	-10.052
ヤ	-10.052
助	-10.0521
プログラムの実行	-10.0521
射	-10.0521
に属する	-10.0521
政	-10.0521
PowerShell	-10.0521
カスタム	-10.0521
キーボード	-10.0521
互いに	-10.0521
の大きさ	-10.0521
BNF	-10.0521
ABI	-10.0521
応答	-10.0521
対策	-10.0522
実験	-10.0522
絶対	-10.0522
フィルタ	-10.0522
除去	-10.0522
array	-10.0522
END	-10.0522
除算	-10.0522
双方	-10.0522
相互運用	-10.0522
系統	-10.0523
メーカー	-10.0524
法則	-10.0524
を行っている	-10.0524
向き	-10.0525
等号	-10.0526
回大会	-10.0528
ごく	-10.0529
定義した	-10.0529
言語によっては	-10.0529
を自動的に	-10.0529
をつける	-10.0531
を表している	-10.0533
ize	-10.0533
引用	-10.0534
を指している	-10.0534
入手	-10.0537
動か	-10.0537
AND	-10.0538
バージョンアップ	-10.0538
の形で	-10.0539
ランド	-10.0541
Net	-10.0546
メソッド呼び出し	-10.0552
有効な	-10.0554
低レベル	-10.0556
は主に	-10.0566
GPL	-10.0568
機能も	-10.0575
であるか	-10.0575
コードを書く	-10.0585
を選択する	-10.0588
ie	-10.0592
発生する	-10.0593
高レベル	-10.0603
発表した	-10.061
トン	-10.0613
ION	-10.0615
アドレスに	-10.0616
ug	-10.0623
重要である	-10.0627
を導入し	-10.0629
Ref	-10.0631
本来の	-10.0643
が使える	-10.0643
しなかった	-10.0643
1972	-10.0647
関数オブジェクト	-10.0651
プロジェクトは	-10.0653
年代の	-10.066
実行速度	-10.0674
言語には	-10.0674
▁Go	-10.0691
可能にし	-10.0693
したときに	-10.0699
特化	-10.0723
ておらず	-10.0737
取り出し	-10.0741
Code	-10.0742
ler	-10.0745
2019	-10.0747
On	-10.075
の例である	-10.0757
値として	-10.0758
▁COBOL	-10.0766
オープン	-10.0769
TA	-10.0774
方法として	-10.0783
可変長	-10.0789
ければ	-10.0796
遅	-10.0813
スタ	-10.0814
使うことができる	-10.0817
画	-10.082
▁2010	-10.0822
ディスパッチ	-10.0822
Logo	-10.0823
費	-10.0824
紙	-10.0824
印	-10.0824
Micro	-10.0824
周	-10.0824
マッカーシー	-10.0824
▁なぜなら	-10.0824
歩	-10.0824
丸	-10.0824
util	-10.0824
マップ	-10.0824
背景	-10.0824
Emacs	-10.0824
セミコロン	-10.0824
jQuery	-10.0824
依存性	-10.0824
望	-10.0824
非終端記号	-10.0824
Component	-10.0824
ない限り	-10.0824
絵	-10.0824
true	-10.0824
むしろ	-10.0824
ステージ	-10.0824
モニタ	-10.0824
プロテクトモード	-10.0824
過去	-10.0824
CASL	-10.0825
スイッチ	-10.0825
ベル研究所	-10.0825
記載	-10.0825
Rule	-10.0825
IEC	-10.0825
ANSI	-10.0825
調整	-10.0825
科目	-10.0826
は以下の通り	-10.0826
フォーム	-10.0827
動的リンク	-10.0836
人気	-10.0836
1968	-10.0837
VCL	-10.0838
を示している	-10.0839
作った	-10.084
ATL	-10.0841
IL	-10.0842
並行性	-10.0843
との互換性	-10.0843
オープンデータ	-10.0853
-10	-10.0857
RAD	-10.086
始めた	-10.0865
を容易にする	-10.0869
参加者	-10.0871
BE	-10.0872
拡張子	-10.0872
加えて	-10.0878
適切に	-10.0882
300	-10.0899
を発表	-10.0903
を備えた	-10.0906
呼び出し側	-10.0917
▁Spring	-10.092
▁Builder	-10.0922
表示する	-10.0925
無し	-10.0927
静的な	-10.0927
どちらの	-10.0939
、195	-10.0952
ログ	-10.0952
が導入された	-10.0963
いく	-10.0965
フル	-10.0969
呼ばれ	-10.0974
▁このとき	-10.1012
低い	-10.1017
ないこと	-10.102
明らかに	-10.1029
が提供する	-10.1051
配列を	-10.1052
という点	-10.1052
向	-10.1054
にかけて	-10.1065
をサポートし	-10.1068
似た	-10.1069
を入れ	-10.1074
彼の	-10.1076
名は	-10.1081
スレッドが	-10.1081
いずれ	-10.1099
▁c	-10.1099
する際に	-10.1102
どちらか	-10.1104
多数	-10.1106
▁12	-10.1109
それによって	-10.111
開発者は	-10.1111
身	-10.1113
できます	-10.1116
多くのプログラミング言語	-10.1124
テーマ	-10.1128
受験	-10.1128
則	-10.1132
規模	-10.1133
水準	-10.1134
反復	-10.1135
感	-10.1135
ニュー	-10.1136
寄	-10.1136
分かれ	-10.1137
delete	-10.1137
印刷	-10.1137
あくまで	-10.1137
インクリメント	-10.1137
短絡評価	-10.1137
によれば	-10.1137
デスクトップ	-10.1137
クローン	-10.1137
始まり	-10.1137
以前に	-10.1137
報告	-10.1137
カウンタ	-10.1137
ユ	-10.1137
担当	-10.1137
NVIDIA	-10.1137
Compiler	-10.1137
すぐに	-10.1137
円	-10.1137
WEB	-10.1137
Add	-10.1137
とは別に	-10.1137
LLVM	-10.1138
ハン	-10.1138
記憶装置	-10.1138
制定	-10.1139
低減	-10.114
生成した	-10.114
会員	-10.114
ゲー	-10.1142
適合	-10.1143
価値	-10.1144
発明	-10.1145
明示的な	-10.1146
社会	-10.1148
準拠	-10.1149
ROM	-10.1149
▁しかしながら	-10.115
情報セキュリティ	-10.1151
分解	-10.1152
と言われる	-10.1161
ことが多く	-10.1161
場合によっては	-10.1164
並行して	-10.117
時期	-10.1176
構文規則	-10.1179
ノート	-10.118
効率的な	-10.1181
使えない	-10.1182
という名称	-10.1188
son	-10.1191
書かれる	-10.1196
などである	-10.1198
ASP	-10.1204
決定される	-10.1226
br	-10.1226
PAR	-10.1233
で実行される	-10.1238
自動生成	-10.1239
どちら	-10.1244
ight	-10.1246
関連する	-10.1247
▁Model	-10.1248
関連付け	-10.1248
で開発された	-10.1253
らず	-10.1254
記述される	-10.1254
たい	-10.1257
すぎ	-10.1261
▁f	-10.127
論理型	-10.1282
Me	-10.1285
つである	-10.1293
Cg	-10.1294
RO	-10.1303
KL	-10.1314
app	-10.1323
を返す関数	-10.1324
に限定	-10.1332
することである	-10.1335
直前	-10.134
できるようになった	-10.1341
call	-10.1342
ub	-10.1343
ER	-10.1343
木構造	-10.1345
で行う	-10.1348
ウス	-10.1348
手続き型	-10.1355
スーパー	-10.1359
形式化	-10.1377
サポートされる	-10.1377
っており	-10.1394
正規	-10.1401
単位で	-10.141
されることが多い	-10.1415
上げる	-10.1422
抽象クラス	-10.1426
コンピュータプログラム	-10.1427
ヘッダ	-10.1431
を用いることで	-10.1439
68	-10.1441
言語によって	-10.1441
amp	-10.1443
を発表した	-10.1443
を意味し	-10.1449
設	-10.1451
不可能	-10.1451
高度	-10.1455
米	-10.1458
ウィ	-10.1458
メディア	-10.1458
害	-10.1459
慣習	-10.1459
”	-10.1459
アメリカ合衆国	-10.1459
混乱	-10.1459
インデクサ	-10.1459
一貫性	-10.1459
ください	-10.1459
プラクティス	-10.1459
Turbo	-10.1459
false	-10.1459
唯一の	-10.1459
島	-10.1459
音声	-10.1459
を使えば	-10.1459
応用情報技術者試験	-10.1459
うまく	-10.1459
至	-10.1459
民	-10.1459
粒度	-10.146
直感的	-10.146
定式化	-10.146
刊	-10.146
ペア	-10.146
マルチパラダイム	-10.146
キット	-10.1461
Simula	-10.1461
エントリ	-10.1461
分散コンピューティング	-10.1461
hoge	-10.1461
を持った	-10.1461
キャリー	-10.1462
著書	-10.1463
1986	-10.1464
仮定	-10.1464
出し	-10.1466
線形	-10.147
を明示的に	-10.1471
シェーダーモデル	-10.1471
バック	-10.1472
を採用した	-10.1474
エド	-10.1476
十分な	-10.1478
1991	-10.148
ライト	-10.1486
プロトタイプベース	-10.149
個人	-10.149
/~	-10.1491
最初から	-10.1496
ろ	-10.1496
簡潔に	-10.1498
手間	-10.1498
れない	-10.1501
先行	-10.1502
利点がある	-10.1503
最新	-10.1507
ソフトウェアコンポーネント	-10.1511
は基本的に	-10.1526
特殊化	-10.1531
えない	-10.1531
ライン	-10.1533
扱うことができる	-10.1543
のひとつである	-10.1571
ことができない	-10.1575
共有ライブラリ	-10.1585
inter	-10.1587
進化	-10.159
加えられ	-10.1592
RS	-10.1605
タブ	-10.1613
外部から	-10.1619
十分	-10.1636
最適化された	-10.164
風	-10.165
GO	-10.1659
書かれ	-10.168
状態に	-10.1691
参照のこと	-10.1699
pr	-10.171
ical	-10.1719
の内容を	-10.173
の観点から	-10.1759
~	-10.1759
とおり	-10.1762
長さ	-10.1773
専	-10.1779
再生	-10.1781
go	-10.1782
併	-10.1787
クロス	-10.179
将	-10.1791
念	-10.1791
この場合	-10.1791
追	-10.1792
状	-10.1792
探	-10.1792
マイクロシステムズ	-10.1792
マネジメント	-10.1792
無駄	-10.1793
情報処理安全確保支援士	-10.1793
PARLOG	-10.1793
フェーズ	-10.1793
に移行	-10.1793
ヒュー	-10.1793
エンドユーザー	-10.1793
Eclipse	-10.1793
メリット	-10.1793
仮数部	-10.1793
Factor	-10.1793
shared	-10.1793
ません	-10.1793
デバッガ	-10.1793
繋	-10.1793
CUDA	-10.1793
にあたる	-10.1793
拡大	-10.1793
製造	-10.1793
変わる	-10.1793
掲載	-10.1793
わかる	-10.1793
団体	-10.1793
逆ポーランド記法	-10.1793
習得	-10.1793
1988	-10.1795
強調	-10.1795
とみなされ	-10.1795
マウス	-10.1795
キング	-10.1796
達成	-10.1796
広く使われている	-10.1796
指数部	-10.1796
が生じる	-10.1796
に直接	-10.1797
Inter	-10.1798
パターンマッチ	-10.1798
のサブセット	-10.1799
たとえ	-10.1799
テキストエディタ	-10.1801
増大	-10.1802
に比べて	-10.1803
上書き	-10.1804
スタブ	-10.1805
暗黙的に	-10.1807
メッセージを	-10.1807
名前修飾	-10.1809
異なった	-10.1809
を中心に	-10.181
を指し	-10.1813
関係変数	-10.182
が得られる	-10.182
エル	-10.1821
を含め	-10.1823
と同じように	-10.1826
FOR	-10.1829
Nim	-10.1833
UN	-10.1836
の仕組み	-10.1838
良	-10.1844
リティ	-10.1851
開発チーム	-10.1853
考える	-10.1854
実行可能な	-10.1865
ブラ	-10.1877
その値	-10.1881
サポートしている	-10.1884
▁Code	-10.1885
簡単	-10.1895
前置	-10.1898
出題される	-10.1902
が用いられる	-10.1921
を加える	-10.1922
レス	-10.1922
発表され	-10.1931
変更される	-10.1936
提供している	-10.1939
let	-10.1943
なった	-10.1954
に相当	-10.1957
型名	-10.1961
を防ぐ	-10.1962
FP	-10.1963
早	-10.1978
グラフィカル	-10.1984
Map	-10.1984
というのは	-10.1993
の分野で	-10.2002
毎	-10.2006
指数	-10.201
オブジェクトファイル	-10.2012
Ex	-10.2013
入力された	-10.202
拡張された	-10.2021
▁それは	-10.2042
は次のように	-10.2047
を持って	-10.2048
関数名	-10.205
問題がある	-10.2063
▁1995	-10.2063
機能がある	-10.2068
を定義できる	-10.2068
指す	-10.2081
自身が	-10.2087
手法である	-10.2088
Bit	-10.21
min	-10.2118
によって異なる	-10.2122
プリンタ	-10.2126
事実	-10.2128
運	-10.2128
そのため	-10.2132
技	-10.2133
協	-10.2134
然	-10.2135
象	-10.2135
DE	-10.2136
副	-10.2136
ポート	-10.2136
育	-10.2137
四	-10.2137
情報処理技術者試験	-10.2137
藤	-10.2137
方程式	-10.2137
積極的に	-10.2137
アップデート	-10.2137
サスマン	-10.2137
曖昧さ	-10.2137
サメットは	-10.2137
参照透過性	-10.2137
operator	-10.2137
とみなす	-10.2137
中括弧	-10.2137
Scala	-10.2137
ファンクション	-10.2137
curses	-10.2137
Write	-10.2137
INTERCAL	-10.2137
に基づき	-10.2137
のライセンスが付属する	-10.2137
役立つ	-10.2137
軍	-10.2137
アセンブル	-10.2137
インテル	-10.2137
final	-10.2137
lambda	-10.2137
繰り返す	-10.2137
Program	-10.2138
興味	-10.2138
ブラックボックス	-10.2138
負荷	-10.2138
のが一般的である	-10.2138
右辺	-10.2138
勤	-10.2138
最新の	-10.2138
上述の	-10.2138
base	-10.2139
指導	-10.2139
合格率	-10.2139
相対	-10.2141
文章	-10.2142
printf	-10.2142
定理	-10.2144
述語論理	-10.2144
制約論理プログラミング	-10.2145
プリンター	-10.2149
側面	-10.215
一時的	-10.2151
1993	-10.2151
知識表現	-10.2156
の中身	-10.2159
ハンドラ	-10.2159
JScript	-10.2161
メタプログラミング	-10.2161
関数へのポインタ	-10.2164
自己書き換えコード	-10.2175
▁1.1	-10.2175
られており	-10.2183
デン	-10.2186
数値計算	-10.2187
ki	-10.2195
を採用する	-10.2196
ではあるが	-10.22
採用された	-10.2204
してから	-10.2207
はあまり	-10.2208
相互に	-10.2208
も可能	-10.2213
が発表された	-10.2218
見える	-10.2227
を指定できる	-10.2233
手続き型プログラミング	-10.2238
he	-10.2239
自体が	-10.225
に使用する	-10.2251
関数テンプレート	-10.2252
が実行される	-10.2258
多い	-10.2264
版では	-10.2271
コンパイルエラー	-10.2274
条件演算子	-10.2279
側に	-10.2298
の並び	-10.2323
させることができる	-10.2325
段階で	-10.2326
言語による	-10.235
のもとで	-10.2362
た場合	-10.2367
がない場合	-10.2383
先頭に	-10.2386
見た	-10.2386
my	-10.2388
という点で	-10.2395
たとき	-10.2403
業界	-10.2422
というものである	-10.2432
を取得する	-10.2449
ことになった	-10.2478
古	-10.2484
命令コード	-10.2485
ng	-10.2489
が定義されている	-10.2489
言語および	-10.2489
埋め込	-10.2491
装	-10.2491
調べ	-10.2493
誌	-10.2494
マサチューセッツ工科大学	-10.2494
リサーチ	-10.2494
室	-10.2495
盛	-10.2495
String	-10.2495
譲	-10.2495
サードパーティ	-10.2495
ボーランド	-10.2495
モバイル	-10.2495
▁language	-10.2495
1984	-10.2495
Template	-10.2495
で囲む	-10.2495
コンソール	-10.2495
オペレータ	-10.2495
不動点コンビネータ	-10.2495
フィードバック	-10.2495
シェーディング言語	-10.2495
Platform	-10.2495
value	-10.2495
NULL	-10.2495
with	-10.2495
短縮	-10.2495
イメージ	-10.2495
テスト駆動開発	-10.2495
博	-10.2495
func	-10.2495
COMET	-10.2495
に合わせて	-10.2495
同梱され	-10.2495
関心	-10.2496
米国	-10.2496
井	-10.2496
コロン	-10.2496
地域	-10.2497
著作	-10.2498
制御フロー	-10.2498
マージ	-10.2498
字句解析	-10.2498
出題範囲	-10.2499
ネスト	-10.2501
そうでない	-10.2502
立ち	-10.2505
つなが	-10.2505
再帰呼び出し	-10.2506
abs	-10.2507
ヘッダー	-10.2507
静的リンク	-10.251
1966	-10.2511
短い	-10.2511
ヘッダファイル	-10.2513
使い方	-10.2513
文字列リテラル	-10.2513
存在しない	-10.2515
今後	-10.2516
にとっては	-10.2518
テン	-10.2521
に使われている	-10.2522
DSM	-10.2522
コード生成	-10.2524
使用可能な	-10.2529
生成された	-10.2529
開発ツール	-10.253
ビット列	-10.2531
で実装された	-10.2545
_{	-10.2545
意味を持つ	-10.255
メモリ管理	-10.255
DI	-10.2562
始める	-10.2564
メモリ上の	-10.2567
と考える	-10.2569
論理変数	-10.2572
ence	-10.2583
事ができる	-10.2584
プリミティブ型	-10.2584
こともあり	-10.2589
も同様	-10.2591
に置き換える	-10.2605
公式に	-10.2608
表す	-10.2608
標準的な	-10.2611
を確認	-10.2627
OL	-10.2631
要素数	-10.264
を示し	-10.2643
方法がある	-10.2649
ary	-10.2649
DEC	-10.2659
89	-10.2669
が低い	-10.267
されるようになった	-10.2702
に移動	-10.2716
挿入	-10.2721
インスタンスメソッド	-10.2735
良く	-10.2797
活	-10.2797
作者	-10.2805
400	-10.2809
が必須	-10.2821
プログラミングにおいて	-10.2833
に分類される	-10.2834
で表す	-10.2839
具体的	-10.2845
not	-10.2846
統	-10.2851
詞	-10.286
材	-10.2861
態	-10.2862
復	-10.2863
管	-10.2864
アウト	-10.2864
struct	-10.2864
延	-10.2865
パーサ	-10.2865
環	-10.2865
トップ	-10.2865
厳密な	-10.2865
マニュアル	-10.2865
データ構築子	-10.2865
州	-10.2865
わずか	-10.2865
ガベージコレクタ	-10.2865
頂点	-10.2865
便利な	-10.2865
チャネル	-10.2865
考案した	-10.2865
Power	-10.2865
ストレージ	-10.2865
スレッドセーフ	-10.2865
具体化	-10.2865
ディレクトリ	-10.2865
―	-10.2865
警告	-10.2865
Excel	-10.2865
チップ	-10.2865
巻	-10.2865
卒業	-10.2865
AWK	-10.2865
視覚的	-10.2865
可視化	-10.2865
_{1}	-10.2865
テレビ	-10.2865
たびに	-10.2865
ごろ	-10.2865
閉じ	-10.2865
解決策	-10.2866
別途	-10.2866
量産	-10.2866
メインフレーム	-10.2866
オフセット	-10.2866
整理	-10.2867
1989	-10.2867
DBMS	-10.2868
CSS	-10.2869
深い	-10.2871
似ている	-10.2871
catch	-10.2873
情報工学	-10.2874
PEG	-10.2874
間の通信	-10.2876
ダック	-10.2878
ワー	-10.2879
大量	-10.2883
Test	-10.2888
的意味論	-10.2889
クラスライブラリ	-10.2892
表記法	-10.2895
を完全に	-10.29
抽象的な	-10.2904
立て	-10.2904
DCC	-10.2906
返される	-10.2913
1976	-10.2918
クラス変数	-10.2924
GP	-10.2928
誤	-10.2934
▁その他	-10.2942
500	-10.2951
あった	-10.2955
なしで	-10.2964
モナド値	-10.2975
効率的に	-10.2975
exe	-10.2981
解釈される	-10.2988
型情報	-10.2997
read	-10.3
ものではない	-10.3005
クラス名	-10.3017
ニア	-10.3025
以降に	-10.3033
に影響を与え	-10.3034
Xbox	-10.3042
関数ポインタ	-10.3055
上記の例	-10.3068
ことが可能である	-10.307
することなく	-10.308
0.1	-10.3082
38	-10.3093
を格納する	-10.3094
されなかった	-10.3103
が含まれ	-10.3114
生まれ	-10.3126
コンピュータプログラミング	-10.3132
を指定して	-10.3136
示される	-10.3137
低く	-10.3144
gl	-10.3151
EE	-10.3158
出力される	-10.3172
していて	-10.3179
アプリケーションの開発	-10.3179
という概念	-10.3181
分野では	-10.3191
SM	-10.3193
を定義し	-10.3198
呼び出され	-10.3212
制	-10.3218
プログラミングにおける	-10.3223
ウィキ	-10.323
立場	-10.3231
引数の型	-10.3233
En	-10.3236
存在している	-10.3239
ていて	-10.3239
カウント	-10.3243
有名	-10.3244
科	-10.3244
野	-10.3247
ゼ	-10.3247
予約	-10.3249
易	-10.3249
エスケープ	-10.3249
就	-10.3249
ウォー	-10.3249
ヨ	-10.3249
GitHub	-10.325
捕	-10.325
後述する	-10.325
auto	-10.325
スレッディング	-10.325
連想配列	-10.325
accessdate	-10.325
reduce	-10.325
Prism	-10.325
タイトル	-10.325
Oracle	-10.325
スキル	-10.325
逸	-10.325
OCaml	-10.325
▁Software	-10.325
兵	-10.325
候補	-10.325
を使わない	-10.325
障害	-10.325
file	-10.325
やり取り	-10.325
から成る	-10.325
トップダウン	-10.325
具象	-10.325
注釈	-10.325
を目的とした	-10.3251
edu	-10.3251
年代後半	-10.3252
を介して	-10.3252
チャーチ	-10.3252
不可	-10.3252
で定義されている	-10.3253
前身	-10.3253
load	-10.3254
ツールキット	-10.3254
US	-10.3254
あたり	-10.3255
異なっている	-10.3255
リッチー	-10.3256
1998	-10.3257
これに	-10.3257
固定長	-10.3258
アンド	-10.3259
まれた	-10.326
put	-10.326
ソフトウェア工学	-10.3261
必要があった	-10.3263
ラボ	-10.3266
を含めた	-10.3266
クリア	-10.3267
で記述された	-10.3269
コンパイラによって	-10.3271
この種の	-10.3271
毎年	-10.3272
を定義している	-10.3273
で構成される	-10.3273
が必要になる	-10.3274
を明示	-10.3275
にコンパイルする	-10.3278
を得た	-10.3278
代用	-10.3279
に格納される	-10.328
関係データベース	-10.3281
になっていた	-10.3282
一人	-10.329
覚	-10.3304
に含まれてい	-10.3308
Ed	-10.3309
つ以上の	-10.3311
てしまった	-10.3311
システム全体	-10.3311
一見	-10.3319
etter	-10.3326
見た目	-10.3351
もまた	-10.3373
を使用し	-10.3386
不可能である	-10.3396
明確に	-10.3408
ことができるようになる	-10.3421
強力で	-10.3429
進め	-10.3433
した結果	-10.3441
で構成され	-10.3447
で表現される	-10.3447
という語	-10.3472
を受け取る	-10.3477
を明確に	-10.3488
コンピュータ言語	-10.3491
させて	-10.3504
ました	-10.3505
pic	-10.3507
arr	-10.3509
に関する情報	-10.3512
まれ	-10.3519
79	-10.3523
こともでき	-10.3538
以下のようになる	-10.3542
を指して	-10.3544
求	-10.3554
ように見える	-10.3563
エラーメッセージ	-10.3569
付けた	-10.3576
場合が多い	-10.3579
を重視し	-10.3586
成功した	-10.3589
を用意し	-10.3595
議	-10.3608
ラムダ	-10.3628
から派生した	-10.3632
36	-10.3639
を満た	-10.3645
ファイルフォーマット	-10.3646
局	-10.3647
講	-10.3647
辞	-10.3648
タイム	-10.3648
住	-10.3648
フロー	-10.3648
具	-10.3648
勝	-10.3649
string	-10.3649
スタンフォード大学	-10.3649
排他制御	-10.3649
Wiki	-10.3649
throw	-10.3649
Null	-10.365
ドナルド	-10.365
県	-10.365
オートマトン	-10.365
縦	-10.365
に限らず	-10.365
エイリアス	-10.365
兼	-10.365
終わり	-10.365
BusyBox	-10.365
Shape	-10.365
ワークステーション	-10.365
を減らす	-10.365
即座に	-10.365
火	-10.365
第一級関数	-10.365
vector	-10.365
パンチカード	-10.365
経由で	-10.365
ビデオ	-10.365
オペコード	-10.365
Math	-10.365
アルファベット	-10.365
簡素	-10.365
ound	-10.365
もあれば	-10.365
別々の	-10.365
コールバック	-10.365
正確な	-10.365
業績	-10.365
価格	-10.365
結局	-10.365
呼称	-10.365
異常	-10.365
打ち	-10.3651
マークアップ	-10.3651
thread	-10.3651
はじめ	-10.3652
も含まれる	-10.3652
動画	-10.3652
と言われている	-10.3653
確定	-10.3654
ネット	-10.3655
することが可能	-10.3655
acc	-10.3657
Imp	-10.3659
乱数	-10.3659
表現される	-10.3659
ユニットテスト	-10.366
不明	-10.3661
静的スコープ	-10.3666
ガイ	-10.3666
高性能	-10.3667
main	-10.3667
連結リスト	-10.3668
フック	-10.367
と述べている	-10.3672
発売された	-10.3672
型検査	-10.3679
残り	-10.3679
後ろ	-10.3679
人物	-10.3679
プログラミングコンテスト	-10.3681
広い	-10.3683
を利用することで	-10.3683
を使うことができる	-10.3684
廃止された	-10.3686
800	-10.3702
ビット単位	-10.3703
発行	-10.3704
を基に	-10.3711
与えられる	-10.3714
言語で書かれた	-10.372
停止する	-10.3722
組み込みシステム	-10.3724
標準化された	-10.3727
個数	-10.3729
できないため	-10.374
も同様に	-10.3745
199	-10.3749
抽象メソッド	-10.375
Ph	-10.3759
共に	-10.3773
くなり	-10.3775
対応している	-10.3775
側から	-10.3778
と同じく	-10.3792
My	-10.3793
クラステンプレート	-10.3801
▁これによって	-10.3812
十分に	-10.382
だから	-10.3822
評価戦略	-10.3824
ネイティブコード	-10.3829
べきである	-10.3835
並び	-10.3848
それ自身	-10.3858
グループ化	-10.3863
1950	-10.3865
を導入する	-10.3866
インライン関数	-10.3867
影響を受け	-10.3869
インスタンス変数	-10.387
注意が必要である	-10.3881
が発生した	-10.3892
問出題され	-10.3894
することにより	-10.3898
est	-10.3947
ated	-10.3958
LR	-10.3969
は必ずしも	-10.3972
を評価する	-10.3977
つつ	-10.3978
モデル化	-10.3984
が発生し	-10.3989
の一例	-10.3996
必要がなく	-10.4008
で使われている	-10.4009
以外にも	-10.4026
用法	-10.4044
オリジナル	-10.4051
を務め	-10.4055
主要	-10.4057
安	-10.4061
売	-10.4064
不正	-10.4064
白	-10.4065
0.0	-10.4065
陥	-10.4066
伴	-10.4066
Etoys	-10.4066
豊富な	-10.4066
Mozilla	-10.4066
コンビネータ	-10.4066
師	-10.4066
local	-10.4066
インタープリタ	-10.4066
Professional	-10.4066
ドメイン固有言語	-10.4066
列挙型	-10.4066
FoxPro	-10.4066
Category	-10.4066
Function	-10.4066
を含んでいる	-10.4066
メカニズム	-10.4066
中置記法	-10.4066
Bean	-10.4066
Enterprise	-10.4066
望ましい	-10.4066
充	-10.4066
Integer	-10.4066
Mark	-10.4066
ふ	-10.4066
独自に	-10.4066
トンプソン	-10.4066
bind	-10.4066
config	-10.4066
script	-10.4066
巨大な	-10.4066
web	-10.4066
簡易	-10.4067
復帰	-10.4067
▁具体的には	-10.4067
観測	-10.4067
を取り入れた	-10.4068
判別	-10.4068
にくい	-10.4069
読み込む	-10.4069
公式サイト	-10.4069
BCC	-10.4069
ゼロックス	-10.4069
プレイヤー	-10.4071
差分	-10.4072
古典的な	-10.4074
物理学	-10.4074
の代表	-10.4077
誤り	-10.4077
結合度	-10.4079
複雑さ	-10.4081
シンプルな	-10.4085
有名な	-10.4087
に関連する	-10.4088
論理演算	-10.4091
を組み合わせた	-10.4091
自ら	-10.4091
を指すポインタ	-10.4091
ARM	-10.4093
Javadoc	-10.4093
追加される	-10.4096
純粋な	-10.4101
年頃	-10.4103
処理系の実装	-10.4106
名前解決	-10.4106
合格者	-10.4108
命令型プログラミング	-10.4108
安全な	-10.4113
バン	-10.4117
してきた	-10.4117
進行	-10.4125
それ自体	-10.4128
作り	-10.4136
関数を呼び出す	-10.4137
lab	-10.414
Hack	-10.4141
だったり	-10.4147
同値	-10.4148
Xlib	-10.4152
▁これには	-10.4152
特徴がある	-10.4156
cat	-10.4162
であって	-10.4163
施	-10.4164
持ってい	-10.4165
で用いられる	-10.4166
物理的	-10.4173
影響を与えた	-10.4179
を全て	-10.4182
続いて	-10.4183
中間コード	-10.419
必要となる	-10.4196
を付けて	-10.4199
▁この言語は	-10.4207
を返し	-10.4215
を共有する	-10.4215
を処理する	-10.4219
与	-10.4229
年代から	-10.4238
を元に	-10.4246
で導入された	-10.4254
を追加し	-10.4266
ころ	-10.4267
メモリアドレス	-10.4281
実行され	-10.4287
この問題	-10.4289
することができない	-10.4299
にあった	-10.4315
か否か	-10.4316
を表し	-10.4318
88	-10.4327
できること	-10.4332
このように	-10.4332
いい	-10.4334
すぎる	-10.4339
クラスメソッド	-10.4349
ティング	-10.437
を拡張した	-10.437
が導入され	-10.4373
深く	-10.4376
Art	-10.441
一行	-10.4415
扱われる	-10.4415
制約プログラミング	-10.4429
存在した	-10.4432
▁その場合	-10.444
無名	-10.4464
左辺	-10.4471
シンプル	-10.4482
に変換される	-10.4483
総	-10.4491
を行って	-10.4494
容	-10.4495
判	-10.4496
print	-10.4498
果	-10.4498
を書き	-10.4499
編	-10.45
女	-10.45
テープ	-10.4501
光	-10.4501
クエリ	-10.4501
バリエーション	-10.4501
制御の反転	-10.4501
美	-10.4501
境界を	-10.4501
律	-10.4501
switch	-10.4501
version	-10.4501
代数的データ型	-10.4501
“	-10.4501
鍵	-10.4501
Control	-10.4501
申	-10.4501
アクター	-10.4501
普通の	-10.4501
Community	-10.4501
ふたつの	-10.4501
多次元配列	-10.4501
明確な	-10.4501
John	-10.4501
一致する	-10.4501
越	-10.4501
パネル	-10.4501
健	-10.4501
▁REXX	-10.4501
コミュニケーション	-10.4501
シート	-10.4501
運営	-10.4501
Hoge	-10.4501
たいてい	-10.4501
工夫	-10.4501
に伴い	-10.4501
寄与	-10.4501
スコット	-10.4501
object	-10.4502
ゆ	-10.4502
字句解析器	-10.4502
GPGPU	-10.4502
乗算	-10.4503
ジョブ	-10.4504
redirect	-10.4504
圏論	-10.4504
インライン展開	-10.4504
協力	-10.4504
日にリリースされた	-10.4506
毎回	-10.4506
補間	-10.4507
考案された	-10.4507
ハンドル	-10.4507
慣れ	-10.4509
と考えられる	-10.4509
再び	-10.4511
との連携	-10.4511
に適した	-10.4512
を務めた	-10.4516
1969	-10.452
ベル	-10.4522
ロン	-10.4522
可能となった	-10.4523
そこに	-10.4523
再度	-10.4524
日付	-10.4524
test	-10.4526
なのか	-10.4527
難解プログラミング言語	-10.4531
素数	-10.4531
書き直	-10.4532
やはり	-10.4533
影響を受けた	-10.455
汎用的な	-10.4552
等価な	-10.4556
可変長引数	-10.4556
仮想化	-10.4566
必要とされる	-10.4582
要求される	-10.4616
=|	-10.4624
実現される	-10.4632
que	-10.4645
を得て	-10.4648
有効である	-10.465
レート	-10.468
Get	-10.4682
ものではなく	-10.469
シェーダープログラム	-10.4692
可能だが	-10.4695
作る	-10.4699
早く	-10.4707
を宣言する	-10.4721
red	-10.473
集め	-10.4746
ton	-10.4747
演算結果	-10.4749
高水準	-10.475
クラスのインスタンス	-10.4762
密接に	-10.4762
られていた	-10.4763
計算結果	-10.4772
1.4	-10.4781
に置く	-10.4811
変数の値	-10.4838
ものだ	-10.4853
送られ	-10.4855
Pd	-10.4869
▁ES	-10.4884
数値型	-10.4888
現在でも	-10.4912
に移植され	-10.4915
それまで	-10.4915
新規	-10.4921
も可能である	-10.4943
ジョ	-10.4947
古典	-10.4948
済	-10.4952
ストーリー	-10.4953
サブセット	-10.4953
守	-10.4955
条	-10.4955
又	-10.4955
概	-10.4955
練	-10.4955
給	-10.4955
Service	-10.4955
寿命	-10.4955
コンポジション	-10.4955
ウルフラム	-10.4956
に携わ	-10.4956
愛	-10.4956
触	-10.4956
アニメーション	-10.4956
テーション	-10.4956
NeXT	-10.4956
即	-10.4956
void	-10.4956
ソフトウェア開発技術者試験	-10.4956
起こる	-10.4956
ドイツ	-10.4956
media	-10.4956
Value	-10.4956
コンパクト	-10.4956
ポップ	-10.4956
写像	-10.4956
アンダース	-10.4956
インデント	-10.4956
スマートポインタ	-10.4956
\}$	-10.4956
マネージャ	-10.4956
があれば	-10.4956
を節約	-10.4956
PJL	-10.4956
枠組み	-10.4956
週	-10.4956
セーブ	-10.4956
放送	-10.4956
表計算ソフト	-10.4957
自動定理証明	-10.4957
複合	-10.4957
メニュー	-10.4957
感じ	-10.4957
当然	-10.4958
fix	-10.4958
市場	-10.4959
LOC	-10.4959
読み取り	-10.496
トラップ	-10.4961
広範囲	-10.4962
続き	-10.4963
集約	-10.4963
表せる	-10.4965
表面	-10.4966
ラダー	-10.4967
機体	-10.4969
参照渡し	-10.4969
ition	-10.497
div	-10.4972
に依存している	-10.4972
注文	-10.4974
XOR	-10.4975
不正な	-10.4977
入学	-10.498
再代入	-10.4983
問題解決	-10.4999
オン	-10.4999
行動	-10.5001
幾つかの	-10.5004
ActiveX	-10.5016
Geo	-10.5018
使用できない	-10.5021
少し	-10.5023
という考え方	-10.503
入り	-10.5035
そこで	-10.5035
まれる	-10.5044
という形で	-10.5049
HQ	-10.5054
を想定し	-10.5056
メソッド名	-10.506
から構成され	-10.5062
失われ	-10.5063
sum	-10.5063
その中で	-10.5075
型理論	-10.509
することも可能である	-10.5095
日本語版	-10.5098
複製	-10.5102
で動作し	-10.5108
進められ	-10.5123
を高める	-10.5131
並行処理	-10.5133
呼	-10.5134
}(	-10.5141
EF	-10.5141
を目的として	-10.5147
利用できない	-10.5163
SML	-10.5185
教え	-10.5186
を活用し	-10.5205
思い	-10.5241
▁197	-10.5247
ノー	-10.5249
しやすく	-10.5253
したい場合	-10.5272
行数	-10.5274
書くこと	-10.53
文字コード	-10.5301
onal	-10.5304
最適化を行う	-10.531
同じく	-10.5317
内部的に	-10.5322
と同等の	-10.5348
200	-10.5351
の中から	-10.5356
する必要がない	-10.5358
明示する	-10.536
覚え	-10.5364
機能拡張	-10.5384
オフ	-10.5386
基底	-10.5392
の起源	-10.5396
使え	-10.5406
▁Pi	-10.541
これも	-10.5414
ゲ	-10.5415
していなかった	-10.5418
Base	-10.5419
icrosoft	-10.5422
仕	-10.5424
生産	-10.5424
十	-10.5426
習	-10.5427
述べる	-10.5428
術	-10.5428
サイド	-10.543
課	-10.5431
info	-10.5431
可変	-10.5431
像	-10.5431
帯	-10.5432
超	-10.5432
OpenACC	-10.5432
シグネチャ	-10.5432
死	-10.5432
授与	-10.5432
遠	-10.5432
php	-10.5432
ランダム	-10.5432
where	-10.5432
オーバーフロー	-10.5432
サウンド	-10.5432
座標	-10.5432
簡略化	-10.5432
HTTP	-10.5432
アイディア	-10.5432
確実に	-10.5432
glob	-10.5432
public	-10.5432
URL	-10.5432
を使わずに	-10.5432
ストレイチー	-10.5432
マジックナンバー	-10.5432
ホーア	-10.5432
signaling	-10.5432
にもかかわらず	-10.5432
も含め	-10.5432
遠隔	-10.5432
※	-10.5432
合体演算子	-10.5432
▁Foundation	-10.5432
ピクセル	-10.5432
book	-10.5432
を引き起こす	-10.5432
アプレット	-10.5432
フリースタンディング環境	-10.5432
パーツ	-10.5432
急	-10.5432
を目指す	-10.5432
降	-10.5432
パケット	-10.5432
サセンラスは	-10.5432
経営	-10.5432
川	-10.5432
株式会社	-10.5432
述べた	-10.5432
OKE	-10.5432
lua	-10.5432
sift	-10.5432
哲学	-10.5432
詳しく	-10.5432
LOD	-10.5432
負のゼロ	-10.5432
規約	-10.5432
は次の通り	-10.5432
ダウンキャスト	-10.5432
返却	-10.5432
が求められる	-10.5432
経路	-10.5432
講演	-10.5432
組み立て	-10.5432
マルチメディア	-10.5433
創設	-10.5433
簡約	-10.5433
write	-10.5433
になってしまう	-10.5433
相互作用	-10.5433
単精度	-10.5433
減算	-10.5433
MVC	-10.5434
で囲まれ	-10.5434
インポート	-10.5434
深さ	-10.5435
純粋関数型言語	-10.5435
dBASE	-10.5435
一郎	-10.5436
読み出し	-10.5436
書かれていた	-10.5436
仮想記憶	-10.5436
トリック	-10.5437
に適している	-10.5438
を割り当てる	-10.5438
をベースとした	-10.5439
再現	-10.5439
ロゴ	-10.5439
主流	-10.544
併用	-10.544
問を選択	-10.5441
バッチファイル	-10.5441
をもとに	-10.5442
シン	-10.5442
ブール	-10.5442
アレン	-10.5443
汎用体	-10.5444
新しく	-10.5445
yacc	-10.5445
されていて	-10.5445
廃止され	-10.5445
置かれる	-10.5448
Genera	-10.5449
間違い	-10.5453
そこから	-10.5454
たい場合	-10.5455
合う	-10.5457
機能追加	-10.5459
論理学	-10.546
App	-10.546
を付ける	-10.5464
数学者	-10.5465
を判定する	-10.547
結び付	-10.5471
を加えた	-10.5471
別名	-10.5473
バージョン番号	-10.5475
渡された	-10.5486
に入る	-10.5489
表計算	-10.549
命令列	-10.5502
パラメーター	-10.5504
だけではなく	-10.5508
であったり	-10.5508
を要する	-10.5516
を経て	-10.5516
つき	-10.5518
再帰的な	-10.5519
内部表現	-10.5532
を組み合わせて	-10.5544
1995	-10.5546
よく似ている	-10.5553
メタデータ	-10.5555
片	-10.5558
を変え	-10.5571
Oz	-10.5572
ておく	-10.5578
が可能となっている	-10.5578
の下で	-10.558
論理演算子	-10.5591
呼び出し元	-10.5603
MZ	-10.5619
をサポートしない	-10.5619
ポー	-10.5638
に適用される	-10.5649
ja	-10.565
を取得し	-10.5652
▁La	-10.5659
ことが推奨され	-10.5681
複雑化	-10.5702
ish	-10.5712
が必要な場合	-10.5716
を避ける	-10.5724
正常	-10.573
されておらず	-10.5733
複数のプロセス	-10.5737
てくる	-10.5742
まとめて	-10.5759
ies	-10.576
近い	-10.5773
を受ける	-10.5788
実体化	-10.5797
置かれ	-10.5799
then	-10.5823
変数の型	-10.5839
1.5	-10.5851
効率的	-10.5853
Active	-10.5865
戻す	-10.5868
78	-10.5883
がなされ	-10.5902
抜け	-10.5907
向上する	-10.5909
と比べ	-10.5912
に比べ	-10.5916
演算子の優先順位	-10.592
読み取	-10.5926
することが可能である	-10.5927
路	-10.5927
労	-10.5929
資	-10.593
の集まり	-10.5931
盤	-10.5931
告	-10.5932
ツーゼ	-10.5932
アノテーション	-10.5932
チェス	-10.5932
もちろん	-10.5932
ホーム	-10.5932
北	-10.5932
–	-10.5932
リップ	-10.5932
オーバーレイ	-10.5932
スティール	-10.5932
凝	-10.5932
治	-10.5932
第一級オブジェクト	-10.5932
整合性	-10.5932
氏	-10.5932
スロット	-10.5932
Method	-10.5932
Occam	-10.5932
’’	-10.5932
アイテム	-10.5932
キャラクタ	-10.5932
スピン	-10.5932
凝集度	-10.5932
富	-10.5932
Brainfuck	-10.5932
Clojure	-10.5932
Solaris	-10.5932
TECO	-10.5932
メッセージパッシング	-10.5932
以前から	-10.5932
Media	-10.5932
ディレクティブ	-10.5932
バックトラック	-10.5932
故	-10.5932
Wikipedia	-10.5932
アパートメント	-10.5932
責務	-10.5932
High	-10.5932
Miranda	-10.5932
数理論理学	-10.5932
高等学校	-10.5932
ざ	-10.5932
神	-10.5932
アーカイブ	-10.5932
scope	-10.5932
ずっと	-10.5932
イギリス	-10.5932
Node	-10.5932
ノイマン	-10.5932
芸	-10.5932
結びつ	-10.5932
成立する	-10.5932
技能	-10.5932
メタ構文変数	-10.5932
認知	-10.5932
手動で	-10.5932
1982	-10.5932
後述の	-10.5932
SDL	-10.5932
バンドル	-10.5932
入れ替え	-10.5932
tags	-10.5933
幅広い	-10.5933
予想	-10.5933
差異	-10.5933
long	-10.5934
住所	-10.5934
辞書	-10.5934
わからない	-10.5934
CHR	-10.5935
確立	-10.5936
ABC	-10.5936
OpenMP	-10.5936
クリック	-10.5937
番地	-10.5937
国家	-10.5937
マイクロプロセッサ	-10.5937
非推奨	-10.5938
番組	-10.5939
8086	-10.5939
ニング	-10.5939
ごとの	-10.5939
を目指して	-10.594
左再帰	-10.594
コルーチン	-10.594
学ぶ	-10.594
ミング	-10.5942
を施す	-10.5942
初め	-10.5942
改名	-10.5943
に分割する	-10.5943
二項演算子	-10.5944
行なわれ	-10.5946
問題を解決する	-10.5946
に限られ	-10.5946
をとり	-10.5948
最終的な	-10.595
UML	-10.5952
階層構造	-10.5953
まったく	-10.5954
ものが多い	-10.5955
を利用している	-10.5955
reate	-10.5956
機能を実現する	-10.5957
抜ける	-10.596
を指定することで	-10.5963
JUnit	-10.5964
を用いている	-10.5965
bot	-10.5971
なくとも	-10.5973
num	-10.5974
を公開し	-10.5977
不可能な	-10.5985
実行中の	-10.5989
実行時コンパイラ	-10.5997
と呼ばれることもある	-10.6
を知る	-10.6002
算術演算	-10.6019
ビー	-10.602
ようとする	-10.602
似たような	-10.6029
を必要とし	-10.6037
1973	-10.6042
プログラム全体	-10.6057
できるようになる	-10.6061
自由変数	-10.6081
で記述され	-10.6083
このバージョン	-10.6094
works	-10.6123
くなった	-10.6131
並行プログラミング	-10.6133
てもよい	-10.6144
仮想継承	-10.6155
ほぼ同じ	-10.6161
複数のスレッド	-10.6161
プログラムのソースコード	-10.6163
戻る	-10.6176
テキストファイル	-10.6181
として知られる	-10.619
1000	-10.62
つ目の	-10.6216
がリリースされ	-10.6228
key	-10.6257
式の評価	-10.6257
974	-10.6294
TER	-10.6305
ことを可能にする	-10.6313
を施し	-10.6321
クラスベース	-10.6322
Qu	-10.6333
ことに注意	-10.6334
解消	-10.6334
を解決する	-10.6363
せた	-10.6374
を採用し	-10.6381
ビジュアル	-10.6389
ニクラ	-10.6399
使っている	-10.641
ハンド	-10.6425
難解	-10.643
整数値	-10.6432
time	-10.6434
ことのできる	-10.6444
形成	-10.6444
覧	-10.6451
標	-10.6454
を利用し	-10.6454
程	-10.6454
パート	-10.6456
Compute	-10.6456
料	-10.6456
録	-10.6457
永	-10.6457
拠	-10.6457
情	-10.6458
ホッパー	-10.6458
に代表される	-10.6458
github	-10.6458
生み出され	-10.6458
スパゲティ	-10.6458
温	-10.6458
を参考に	-10.6458
ウィキペディア	-10.6458
ダイナミック	-10.6458
リンケージ	-10.6458
エルビス演算子	-10.6458
恒	-10.6458
透過的	-10.6458
便利である	-10.6458
定期的に	-10.6458
ガード付きコマンド	-10.6458
シミュレータ	-10.6458
不具合	-10.6458
様々である	-10.6458
エンディアン	-10.6458
マーティン	-10.6458
ユニーク	-10.6458
祖	-10.6458
インタラクティブ	-10.6458
Altair	-10.6458
秀	-10.6458
額	-10.6458
閉世界仮説	-10.6458
とも言える	-10.6458
を伴う	-10.6458
オリジン	-10.6458
パーソナルコンピュータ	-10.6458
昇	-10.6458
MVVM	-10.6458
pdf	-10.6458
lock	-10.6458
母	-10.6458
Multi	-10.6458
資産	-10.6458
敵	-10.6458
千	-10.6458
Mops	-10.6458
疑似	-10.6458
Mind	-10.6458
電子メール	-10.6458
data	-10.6458
の有無	-10.6459
Name	-10.6459
と呼んでいる	-10.6459
structure	-10.6459
双方向	-10.6459
コールグラフ	-10.646
分布	-10.6461
が考えられる	-10.6461
8.0	-10.6461
反応	-10.6462
レポート	-10.6462
を可能とする	-10.6463
を調べる	-10.6463
を持っていた	-10.6463
Structure	-10.6463
優先度	-10.6463
コンパイル時定数	-10.6464
個以上の	-10.6465
増える	-10.6466
と呼ばれていた	-10.6466
よく使われている	-10.6468
CLU	-10.6469
大半	-10.6469
コードの再利用	-10.6471
図形	-10.6471
後半	-10.6472
FLO	-10.6473
次第	-10.6473
のテーマは	-10.6475
になっており	-10.6478
現代的な	-10.6478
と比べて	-10.6479
方法論	-10.6479
システムコール	-10.6482
ルズ	-10.6483
と見なされる	-10.6483
一番	-10.6486
ダール	-10.6487
プロファイル	-10.6491
著者	-10.6492
▁当初は	-10.6493
ビット演算	-10.6493
左辺値	-10.6495
が保証され	-10.6498
作られる	-10.6499
並列性	-10.6503
自社	-10.6504
無視される	-10.6508
が特徴である	-10.6508
を発生させ	-10.651
受け入れ	-10.6513
事実上	-10.6514
有効アドレス	-10.6514
arg	-10.6515
発生しない	-10.6516
不要な	-10.6518
表現力	-10.6522
1975	-10.6524
use	-10.6529
クラスター	-10.6533
▁To	-10.6536
0.2	-10.6567
にも使われる	-10.6576
起こす	-10.6579
用いることができる	-10.6586
ものだった	-10.6594
分散システム	-10.6598
Server	-10.6621
モジュール化	-10.6635
を設定する	-10.6647
初期値	-10.6657
を変更し	-10.6658
関数型プログラミング言語	-10.6663
が定義され	-10.669
事務	-10.6695
land	-10.6706
を防ぐため	-10.6734
実際	-10.6746
box	-10.6751
と呼ばれた	-10.677
work	-10.6804
7.0	-10.6807
短く	-10.6811
user	-10.6842
has	-10.6852
まとめる	-10.6887
適切	-10.6891
が生成され	-10.6892
産	-10.6892
を開始し	-10.6914
することも可能	-10.697
を変える	-10.6984
発展させ	-10.6992
乱	-10.7001
被	-10.7002
バッチ	-10.7002
章	-10.7006
してくれる	-10.7011
再開	-10.7013
甲	-10.7013
○	-10.7013
裁	-10.7013
アドミニストレータ	-10.7013
ニューヨーク	-10.7013
ぜ	-10.7013
カッコ	-10.7013
そもそも	-10.7014
細かい	-10.7014
AngularJS	-10.7014
source	-10.7014
松	-10.7014
洗練された	-10.7014
エクスポート	-10.7014
板	-10.7014
習慣	-10.7014
随	-10.7014
チャンネル	-10.7014
型構築子	-10.7014
平均	-10.7014
スケジューリング	-10.7014
ディストリビューション	-10.7014
依然として	-10.7014
原子論理式	-10.7014
天	-10.7014
豊	-10.7014
protect	-10.7014
Version	-10.7014
リポジトリ	-10.7014
単独で	-10.7014
認証	-10.7014
ノルウェー	-10.7014
フォルダ	-10.7014
選ばれた	-10.7014
CoffeeScript	-10.7014
ourceforge	-10.7014
挙げた	-10.7014
quiet	-10.7014
なくてはならない	-10.7014
添え字	-10.7014
シンタックス	-10.7014
リクエスト	-10.7014
執筆	-10.7014
Sharp	-10.7014
▁Toolkit	-10.7014
ソリューション	-10.7014
compile	-10.7014
フェッチ	-10.7014
宜	-10.7014
push	-10.7014
ヴィ	-10.7014
疎	-10.7014
に従う	-10.7014
ハンガリアン	-10.7014
私	-10.7014
カナダ	-10.7014
score	-10.7014
載	-10.7014
オートコード	-10.7014
世紀	-10.7014
Word	-10.7014
資料	-10.7014
を除いて	-10.7014
New	-10.7014
紙テープ	-10.7014
Some	-10.7014
開放	-10.7014
加減算	-10.7014
1981	-10.7014
,000	-10.7014
とも言われ	-10.7014
のが普通である	-10.7014
何度も	-10.7015
Relati	-10.7015
ベクタ	-10.7015
単項演算子	-10.7015
の高さ	-10.7015
を置く	-10.7015
後発の	-10.7016
特権	-10.7016
Processing	-10.7017
総合	-10.7017
決まる	-10.7017
減少	-10.7017
▁Comp	-10.7017
学術	-10.7017
マルチタスク	-10.7018
左右	-10.7019
最上位	-10.702
人材	-10.702
二進法	-10.7021
Step	-10.7021
書いている	-10.7021
を実現している	-10.7021
products	-10.7021
クラスベースのオブジェクト指向	-10.7022
合計	-10.7023
▁Pack	-10.7025
年の論文	-10.7025
間で共有	-10.7026
すればよい	-10.7026
命令型言語	-10.7026
無限大	-10.7027
カ国	-10.7027
下位レベル	-10.7027
全国	-10.7028
をまとめた	-10.7034
抽象データ型	-10.7035
CLX	-10.7035
宣言型プログラミング	-10.7036
times	-10.704
dll	-10.7041
記号列	-10.7043
等価性	-10.7045
ラング	-10.7048
間の関係	-10.7052
認め	-10.7054
動的配列	-10.7056
max	-10.7062
を共有し	-10.7062
1964	-10.7063
部分適用	-10.7065
自然言語処理	-10.7072
を必要としない	-10.7078
読者	-10.7081
選択可能	-10.7101
正規化	-10.7108
親クラス	-10.7114
付けられる	-10.7208
を実現するための	-10.7209
Basic	-10.7212
ていなければならない	-10.7214
を有する	-10.7218
点以上	-10.7229
教育用	-10.7232
を挿入する	-10.7236
を避けるため	-10.725
▁9.0	-10.7252
受け取る	-10.7261
こととなった	-10.7291
を選択して	-10.7333
ウェブアプリケーション	-10.7334
600	-10.7342
人工知能研究	-10.7363
api	-10.7427
PIC	-10.7432
プレー	-10.7438
exp	-10.746
off	-10.7541
価	-10.7573
5%	-10.7594
direct	-10.7598
散	-10.7598
抜	-10.7598
競	-10.7599
リファレンス	-10.7599
証	-10.7599
ナウア	-10.7599
認められ	-10.76
Quick	-10.76
シーケンス	-10.7601
災	-10.7602
幹	-10.7602
吸	-10.7602
メモリリーク	-10.7602
五	-10.7602
穴	-10.7602
ファームウェア	-10.7602
もっぱら	-10.7602
projects	-10.7602
三項演算子	-10.7602
若干	-10.7602
Mantle	-10.7602
再帰下降構文解析	-10.7602
▁EPANET	-10.7602
絡	-10.7602
いったん	-10.7602
スクリーン	-10.7602
コンピュートシェーダー	-10.7602
おそらく	-10.7602
チュートリアル	-10.7602
接頭辞	-10.7602
yield	-10.7602
生徒	-10.7602
process	-10.7602
▁Composer	-10.7602
書けば	-10.7602
Ajax	-10.7602
LuaJIT	-10.7602
まとまり	-10.7602
プライベート	-10.7602
Quartz	-10.7602
alpha	-10.7602
software	-10.7602
やりとり	-10.7602
ホーン節	-10.7602
ボトムアップ構文解析	-10.7602
適当な	-10.7602
該当する	-10.7602
Manage	-10.7602
iterator	-10.7602
アナウンス	-10.7602
チャレンジ	-10.7602
パッカード	-10.7602
文脈自由言語	-10.7602
言い換え	-10.7602
メジャー	-10.7602
ネーム	-10.7602
ボックス化解除	-10.7602
太	-10.7602
−	-10.7602
アスキー	-10.7602
本質的に	-10.7602
beta	-10.7602
園	-10.7602
Time	-10.7602
ヒューイット	-10.7602
屋	-10.7602
なでしこ	-10.7602
岡	-10.7602
tran	-10.7602
ばかり	-10.7602
_{2}	-10.7602
を埋め込む	-10.7602
しておき	-10.7602
WTL	-10.7602
RMI	-10.7602
改造	-10.7602
工程	-10.7602
Play	-10.7602
OpenMusic	-10.7603
プロダクションルール	-10.7603
パーサジェネレータ	-10.7603
経済	-10.7603
わかりやすい	-10.7603
特筆	-10.7603
間隔	-10.7603
協調	-10.7603
cast	-10.7603
Input	-10.7603
を超えて	-10.7603
PEAR	-10.7604
強い型付け	-10.7605
となっており	-10.7605
を集めた	-10.7605
CAP	-10.7605
有利	-10.7606
月にリリースされた	-10.7607
受理	-10.7607
atch	-10.7607
機械学習	-10.7607
各々の	-10.7607
反対	-10.7609
位置づけ	-10.761
国立	-10.7611
マルチプラットフォーム	-10.7611
間接的に	-10.7617
evel	-10.7617
ブーリアン型	-10.7618
が可能になった	-10.7618
機会	-10.7619
名前渡し	-10.7619
行為	-10.7619
表明	-10.7619
抽象度	-10.762
▁RPL	-10.762
遅い	-10.7622
▁そのほか	-10.7622
xBase	-10.7624
不定	-10.7627
Ook	-10.7628
ペアプログラミング	-10.7628
実用的な	-10.763
ランタイム環境	-10.763
述	-10.7631
using	-10.7634
ウィキデータ	-10.7634
並列化	-10.7634
悪い	-10.7635
part	-10.764
自然数	-10.7642
にならない	-10.7643
に置き換えられ	-10.7645
1978	-10.7666
Lex	-10.7677
5.1	-10.7679
ビジュアルプログラミング言語	-10.768
Not	-10.7693
psto	-10.7699
仕様書	-10.7704
生まれる	-10.7779
5.2	-10.7794
よう設計され	-10.7798
てしまい	-10.7879
をコンパイルする	-10.788
に分割し	-10.7892
Page	-10.7898
上の例で	-10.7907
事務処理	-10.7963
並列実行	-10.7976
ています	-10.8031
非仮想	-10.8035
置き	-10.8062
片方	-10.8063
ありうる	-10.8077
誤って	-10.8081
しまう	-10.809
を並べ	-10.8093
見せ	-10.8139
ファイナライザ	-10.8142
を定義すること	-10.8155
述べている	-10.8191
受け付け	-10.8191
ハイ	-10.8214
ラップ	-10.822
性を高め	-10.8221
布	-10.8223
呼び出せ	-10.8223
造	-10.8225
味	-10.8226
争	-10.8226
筆	-10.8226
プッシュ	-10.8226
障	-10.8226
soft	-10.8227
にも関わらず	-10.8227
最適な	-10.8227
苦	-10.8227
町	-10.8227
ファミリー	-10.8227
秋	-10.8227
薄	-10.8227
究	-10.8227
リアルモード	-10.8227
久	-10.8227
冪	-10.8227
可視性	-10.8227
翌	-10.8227
expression	-10.8227
private	-10.8227
シリアライズ	-10.8227
グロブ	-10.8227
ショー	-10.8227
スクリプティング	-10.8227
レジストリ	-10.8227
▁Explorer	-10.8227
プロバイダ	-10.8227
Action	-10.8227
ダイナミックリンクライブラリ	-10.8227
プレゼンテーション	-10.8227
Graphics	-10.8227
system	-10.8227
優れた	-10.8227
成り立つ	-10.8227
科学技術計算	-10.8227
IRCAM	-10.8227
·	-10.8227
伝統的な	-10.8227
伸	-10.8227
実効アドレス	-10.8227
店	-10.8227
突	-10.8227
組合せ	-10.8227
Kotlin	-10.8227
トレードオフ	-10.8227
備わっている	-10.8227
圧	-10.8227
GOTO	-10.8227
swap	-10.8227
ディスクリプタ	-10.8227
支持者	-10.8227
Machine	-10.8227
Zopfli	-10.8227
スキーマ	-10.8227
ピーター	-10.8227
位置独立コード	-10.8227
例を挙げる	-10.8227
請求書	-10.8227
Report	-10.8227
▁Development	-10.8227
ーモア	-10.8227
司	-10.8227
四則演算	-10.8227
Dylan	-10.8227
Malbolge	-10.8227
に応じた	-10.8227
微分方程式	-10.8227
アドレッシング	-10.8227
ハッカー	-10.8227
Kylix	-10.8227
に到達	-10.8227
Alto	-10.8227
にあたって	-10.8227
Team	-10.8227
に従った	-10.8227
大阪	-10.8227
構想	-10.8227
友	-10.8227
gcc	-10.8227
▁よって	-10.8227
User	-10.8227
有償	-10.8227
TLS	-10.8227
に従い	-10.8227
離散	-10.8227
所有権	-10.8228
彼女	-10.8228
SAP	-10.8228
国家資格	-10.8228
現象	-10.8228
▁Developer	-10.8228
ステータスレジスタ	-10.8228
Mono	-10.8228
を試みる	-10.8229
Internet	-10.8229
遅くなる	-10.8229
近似	-10.8229
につながる	-10.8229
低水準言語	-10.8229
QuickBASIC	-10.8229
商業	-10.8229
マルチコア	-10.823
を生み出し	-10.823
誤解	-10.8231
を置き換える	-10.8232
反復子	-10.8232
反面	-10.8233
プロット	-10.8233
に渡って	-10.8234
とも言う	-10.8234
同名の	-10.8234
許されない	-10.8234
進小数	-10.8234
使われることが多い	-10.8234
最上位ビット	-10.8234
所有	-10.8234
pars	-10.8234
ライアン	-10.8235
参照カウント方式	-10.8235
配線	-10.8235
者もいる	-10.8236
明記	-10.8236
自作	-10.8236
外側の	-10.8236
Char	-10.8237
大きくなる	-10.8237
コールスタック	-10.8237
不足	-10.8237
必須ではない	-10.8239
相手	-10.8239
乗法	-10.824
記憶領域	-10.824
エキスパートシステム	-10.824
を変化させる	-10.8241
読み取り専用	-10.8242
させられる	-10.8243
▁Kit	-10.8245
意見	-10.8246
対話的に	-10.8246
作られている	-10.8247
成長	-10.825
プロダクションシステム	-10.8252
Tcl	-10.828
つつある	-10.8299
ことを目的としてい	-10.8314
Exp	-10.8336
深	-10.8396
を格納し	-10.8407
===	-10.8411
明示的	-10.8412
ntu	-10.8436
例示	-10.8457
を支援する	-10.8501
がなされる	-10.8527
ってくる	-10.8644
代わり	-10.8655
結果を返す	-10.8689
4.1	-10.8701
作られ	-10.8728
をもって	-10.8738
世界中	-10.8738
1971	-10.8744
を意識し	-10.8755
に分けられる	-10.8757
を改善する	-10.876
チューリング	-10.8823
を適用して	-10.8841
を変換する	-10.8852
を理解する	-10.8879
リッチ	-10.8882
レイヤ	-10.8884
去	-10.8891
打	-10.8891
の正しさ	-10.8891
派	-10.8891
オラクル	-10.8893
サイエンス	-10.8893
一階述語論理	-10.8893
航	-10.8893
官	-10.8893
沢	-10.8893
響	-10.8893
土	-10.8893
number	-10.8893
ublisher	-10.8893
踏	-10.8893
京	-10.8893
factorial	-10.8893
を超える	-10.8893
ジャーゴン	-10.8893
爆	-10.8893
ヘッド	-10.8893
プロプライエタリ	-10.8893
graph	-10.8893
不透明	-10.8893
鉄道	-10.8893
黒	-10.8893
ジュニア	-10.8893
余分な	-10.8893
Unlambda	-10.8893
アイバーソン	-10.8893
セルフホスティング	-10.8893
デニス	-10.8893
プラグマ	-10.8893
ロチェスター	-10.8893
依存性の注入	-10.8893
可能な限り	-10.8893
折	-10.8893
独自拡張	-10.8893
Strand	-10.8893
binary	-10.8893
float	-10.8893
ソケット	-10.8893
ディスプレイ	-10.8893
さらなる	-10.8893
アトミック	-10.8893
Borland	-10.8894
到	-10.8894
TTCN	-10.8894
extend	-10.8894
view	-10.8894
キャプチャ	-10.8894
ダイアレクト	-10.8894
偶	-10.8894
Communicati	-10.8894
Document	-10.8894
LiveCode	-10.8894
Reduce	-10.8894
不変条件	-10.8894
箱	-10.8894
▁Form	-10.8894
ISWIM	-10.8894
Space	-10.8894
ブート	-10.8894
古くから	-10.8894
▁Technologies	-10.8894
スマートフォン	-10.8894
優れている	-10.8894
eval	-10.8894
エミュレータ	-10.8894
コンフィギュレーション	-10.8894
Raku	-10.8894
left	-10.8894
に伴う	-10.8894
エディンバラ大学	-10.8894
ステート	-10.8894
style	-10.8894
暗黙のうちに	-10.8894
を見つける	-10.8894
アジャイル	-10.8894
SPIR	-10.8894
時間がかかる	-10.8894
シーン	-10.8894
末尾再帰	-10.8894
追跡	-10.8894
父	-10.8894
baz	-10.8894
データストア	-10.8894
パロアルト研究所	-10.8894
ヘルスバーグ	-10.8894
Davi	-10.8894
引用符	-10.8894
GTK	-10.8894
BITS	-10.8894
EJB	-10.8894
xxx	-10.8894
特有の	-10.8894
授業	-10.8894
span	-10.8894
爆弾	-10.8894
縮小	-10.8894
高校	-10.8894
同時期に	-10.8894
利益	-10.8894
なるべく	-10.8894
高度情報処理技術者試験	-10.8894
++03	-10.8894
SUB	-10.8894
永続	-10.8895
ハッシュテーブル	-10.8895
枠	-10.8895
回答	-10.8895
link	-10.8895
指標	-10.8895
FreeBSD	-10.8895
第一種情報処理技術者試験	-10.8895
ナウア記法	-10.8896
改称	-10.8896
DirectCompute	-10.8896
工業	-10.8896
パパート	-10.8897
保有	-10.8897
理想	-10.8897
が搭載されている	-10.8897
を設け	-10.8897
ユーザーストーリー	-10.8897
活発	-10.8898
ディング	-10.8898
取り組み	-10.8899
LSB	-10.8899
テンプレートメタプログラミング	-10.8899
CCOSX	-10.8899
埋め込み	-10.8899
扱いやすい	-10.8899
以下のようなものがある	-10.89
ample	-10.89
描く	-10.89
Mars	-10.89
ゲイ	-10.8901
インストーラー	-10.8901
誤った	-10.8901
伝える	-10.8902
通称	-10.8902
ツリー	-10.8902
ベータ版	-10.8906
を開始する	-10.8908
動機	-10.8912
を提案した	-10.8913
Main	-10.8927
最新バージョン	-10.8934
生成器	-10.8954
なしに	-10.8958
呼出	-10.8976
てきている	-10.8999
free	-10.9008
取り扱う	-10.9016
考えられている	-10.9127
を拡張する	-10.916
table	-10.9161
▁これに対し	-10.9173
開発者向け	-10.9242
に分割され	-10.9269
をインストールする	-10.9309
make	-10.9347
画面上	-10.9354
right	-10.9358
命題	-10.9375
アリティ	-10.9384
と比較すると	-10.9406
を実装し	-10.9507
を統合し	-10.9523
自己書き換え	-10.9532
受けた	-10.9538
プロダクション	-10.9578
Window	-10.9584
評	-10.9595
とも呼ばれ	-10.9597
描	-10.96
いずれかの	-10.96
校	-10.9602
簡	-10.9603
Process	-10.9604
ダウン	-10.9605
世	-10.9606
序	-10.9607
疑	-10.9607
わかり	-10.9607
純	-10.9607
範	-10.9607
掲	-10.9608
ライフサイクル	-10.9608
影	-10.9608
で区切って	-10.9608
なります	-10.9608
広く普及し	-10.9608
なんらかの	-10.9608
族	-10.9608
洋	-10.9608
志	-10.9608
カリフォルニア州	-10.9608
束	-10.9608
はっきり	-10.9608
巧	-10.9608
ストラテジ	-10.9608
ワールド	-10.9608
JACK	-10.9608
programming	-10.9608
パブリック	-10.9608
放棄	-10.9608
西	-10.9608
ケンブリッジ大学	-10.9608
百	-10.9608
クラスファクトリ	-10.9608
ネスティング	-10.9608
大幅な	-10.9608
Guarded	-10.9608
Proxy	-10.9608
Scintilla	-10.9608
break	-10.9608
▁Group	-10.9608
エントリーポイント	-10.9608
バックトラッキング	-10.9608
劣	-10.9608
Alpha	-10.9608
corner	-10.9608
foreach	-10.9608
をもたらす	-10.9608
ドラッグ	-10.9608
映画	-10.9608
石	-10.9608
hello	-10.9608
▁Engine	-10.9608
エフェクト	-10.9608
レシーバ	-10.9608
Raspberry	-10.9608
▁搭載されるコンパイラは	-10.9608
と呼んだ	-10.9608
METAFONT	-10.9608
どれだけ	-10.9608
変わらない	-10.9608
MIDI	-10.9608
セッション	-10.9608
農	-10.9608
そうでなければ	-10.9608
映像	-10.9608
素直に	-10.9608
Tools	-10.9608
なくなってしまう	-10.9608
王	-10.9608
Eiffel	-10.9608
SQLite	-10.9608
Text	-10.9608
scheme	-10.9608
▁thumb	-10.9608
カンマ	-10.9608
ダイアログ	-10.9608
実質的に	-10.9608
NOT	-10.9608
self	-10.9608
Self	-10.9608
に由来し	-10.9608
を重ね	-10.9608
裏	-10.9608
連鎖	-10.9608
LWP	-10.9608
down	-10.9608
で済む	-10.9608
interface	-10.9608
あなた	-10.9608
SECD	-10.9608
地球	-10.9608
TeX	-10.9608
大学院	-10.9608
いくつも	-10.9608
に分かれる	-10.9609
成績	-10.9609
レイアウト	-10.9609
講義	-10.961
電子回路	-10.961
設置	-10.961
組み合わせることで	-10.961
に向けて	-10.961
数々の	-10.9611
ミルズ	-10.9611
デリファレンス	-10.9611
確率	-10.9611
決まった	-10.9611
と共同で	-10.9611
労力	-10.9611
が多かった	-10.9611
博士号を取得	-10.9611
戦士	-10.9612
パラメータ多相	-10.9613
エリア	-10.9613
について述べる	-10.9614
メール	-10.9614
exit	-10.9614
ボディ	-10.9615
ブログ	-10.9615
失敗した場合	-10.9615
見えない	-10.9615
の必要性	-10.9615
対称	-10.9615
は省略できる	-10.9616
よく知られている	-10.9616
名詞	-10.9618
のことを指す	-10.9622
をサポートしており	-10.9624
慣例	-10.9625
答え	-10.9634
POI	-10.9639
dered	-10.9643
両方とも	-10.9664
に変換され	-10.9668
を検証する	-10.9678
同じ名前の	-10.9687
Gui	-10.9691
を強制する	-10.9692
に分けて	-10.9708
に大きな影響を与え	-10.9729
を代入する	-10.9754
ていき	-10.9763
に代入する	-10.9792
に追加する	-10.9794
を作って	-10.9817
ルーティン	-10.9839
を生成できる	-10.9872
持たない	-10.9903
否	-10.9921
Data	-10.9994
4.5	-11.004
やすくなる	-11.0241
を起こ	-11.0248
を適用した	-11.0265
ゆえに	-11.03
を分離し	-11.0338
ほ	-11.0356
ベータ	-11.0363
olfram	-11.0367
放	-11.0373
ョ	-11.0374
精	-11.0374
績	-11.0375
葉	-11.0375
絶	-11.0375
倒	-11.0376
携	-11.0376
廃	-11.0376
Application	-11.0376
却	-11.0376
サイバーセキュリティ	-11.0376
写	-11.0377
見つかった	-11.0377
Cfront	-11.0377
テクスチャ	-11.0377
ショップ	-11.0377
正格評価	-11.0377
亡	-11.0377
NEXT	-11.0377
プロダクト	-11.0377
ヶ	-11.0377
年春期	-11.0377
第二種情報処理技術者試験	-11.0377
アップグレード	-11.0377
モジュラー	-11.0377
漢	-11.0377
潜	-11.0377
モダン	-11.0377
リチャーズ	-11.0377
weak	-11.0377
対義語	-11.0377
男	-11.0377
filter	-11.0377
method	-11.0377
プログラマブルシェーダー	-11.0377
library	-11.0377
を識別する	-11.0377
ウイルス	-11.0377
カーソル	-11.0377
チューリング賞を受賞	-11.0377
一貫した	-11.0377
Toolbox	-11.0377
▁下記は	-11.0377
6、2007、2009、2010	-11.0377
MHEG	-11.0377
かわりに	-11.0377
が付属し	-11.0377
アクセラレータ	-11.0377
ゾ	-11.0377
ハイパー	-11.0377
履歴	-11.0377
忠	-11.0377
7、2007、2009、2010	-11.0377
Info	-11.0377
▁Flash	-11.0377
そちら	-11.0377
俗	-11.0377
Native	-11.0377
受け取った	-11.0377
好ましい	-11.0377
福	-11.0377
▁Computing	-11.0377
▁Host	-11.0377
▁Research	-11.0377
ジョーク	-11.0377
スティーブ	-11.0377
ビジーウェイト	-11.0377
冊	-11.0377
Amiga	-11.0377
Store	-11.0377
を生み出す	-11.0377
アドオン	-11.0377
オーディオ	-11.0377
スワップ	-11.0377
Aspect	-11.0377
SKILL	-11.0377
Vector	-11.0377
▁Statement	-11.0377
いかなる	-11.0377
かもしれません	-11.0377
クイーン	-11.0377
パスポート試験	-11.0377
ABAP	-11.0377
FORTH	-11.0377
virtual	-11.0377
▁Interface	-11.0377
コイル	-11.0377
リチャード	-11.0377
休	-11.0377
▁ちなみに	-11.0377
とは対照的	-11.0377
変数への代入	-11.0377
非決定性	-11.0377
ICOT	-11.0377
アスペクト	-11.0377
プロンプト	-11.0377
Plasma	-11.0377
dynamic	-11.0377
と見なすこと	-11.0377
エージェント	-11.0377
シナリオ	-11.0377
スラッシュ	-11.0377
ダンプ	-11.0377
パズル	-11.0377
と同義	-11.0377
バインド	-11.0377
腕	-11.0377
ムーア	-11.0377
Erlang	-11.0377
館	-11.0377
Press	-11.0377
正式な	-11.0377
を保つ	-11.0377
バッテリー	-11.0377
スポーツ	-11.0377
VAX	-11.0377
JDK	-11.0377
を選ぶ	-11.0377
WPF	-11.0377
エンドツーエンド原理	-11.0377
Soar	-11.0378
に合わせた	-11.0378
設けられ	-11.0378
既定で	-11.0378
対抗	-11.0378
欠陥	-11.0378
在籍	-11.0378
受け渡し	-11.0378
道具	-11.0378
ことを保証する	-11.0378
定理証明	-11.0378
印字	-11.0378
▁2^{	-11.0379
を多用する	-11.0379
論争	-11.0379
副目標	-11.0379
正式に	-11.0379
OFF	-11.0379
GLUT	-11.0379
車両	-11.0379
CASE	-11.0379
高校生	-11.038
とはいえ	-11.038
マイナー	-11.038
クライアントサイド	-11.038
記念	-11.038
経過	-11.038
Transact	-11.038
▁次の例は	-11.0381
負の数	-11.0382
が実施する	-11.0382
公理	-11.0382
動的ディスパッチ	-11.0383
から見て	-11.0386
を進める	-11.0387
に向けた	-11.0389
は削除された	-11.0395
eep	-11.041
で置き換える	-11.0413
Spec	-11.0421
0.5	-11.0426
を評価し	-11.0456
として機能する	-11.0509
を継承する	-11.0547
を要求する	-11.0556
を実施する	-11.0566
を指示する	-11.0574
命題論理	-11.0638
を削除する	-11.0664
する必要性	-11.0726
を改善し	-11.0826
異なっ	-11.0841
以下に示す	-11.0871
を制限する	-11.0897
を可能とし	-11.0899
(1)	-11.0925
▁その代わり	-11.0968
958	-11.1
を付与する	-11.1033
と見なされ	-11.1178
検	-11.1197
郎	-11.1203
htm	-11.1205
展	-11.1207
張	-11.1208
団	-11.1208
ハッシュ	-11.1209
警	-11.1209
閉	-11.1209
obj	-11.1209
犯	-11.121
巨	-11.121
興	-11.121
令	-11.121
座	-11.121
ボトルネック	-11.121
東	-11.121
キロバイト	-11.121
幸	-11.121
グリーン	-11.121
建	-11.121
アイコン	-11.121
クラウド	-11.121
ワイルドカード	-11.121
MBCS	-11.121
次元コンピュータグラフィックス	-11.121
医	-11.121
アベルソン	-11.121
埋	-11.121
軸	-11.121
きちんと	-11.121
スイート	-11.121
PostScript	-11.121
テクニカル	-11.121
に沿った	-11.121
デッドロック	-11.121
assert	-11.121
を持たせる	-11.121
オプティマイザ	-11.121
次予選	-11.121
を超えた	-11.121
スケジュール	-11.121
ベンチマーク	-11.121
EDSAC	-11.121
group	-11.121
おこなわれ	-11.121
レイテンシ	-11.121
80286	-11.121
Second	-11.121
ゃ	-11.121
ヒア文字列	-11.121
リスク	-11.121
を経由して	-11.121
ヒント	-11.121
ブリッジ	-11.121
プロセス間通信	-11.121
Limbo	-11.121
first	-11.121
é	-11.121
シェア	-11.121
役割を果たす	-11.121
枚	-11.121
Command	-11.121
archive	-11.121
rightarrow	-11.121
▁上記のコードは以下のように	-11.121
ダミー	-11.121
ポリシー	-11.121
ワンパス	-11.121
草	-11.121
Digital	-11.121
Fantom	-11.121
Mozart	-11.121
bool	-11.121
こういった	-11.121
クワイン	-11.121
伝統的に	-11.121
有理数	-11.121
橋	-11.121
フレッド	-11.121
近代的な	-11.121
陽	-11.121
Logic	-11.121
Robert	-11.121
彦	-11.121
譜	-11.121
Agda	-11.121
BLISS	-11.121
が異なれば	-11.121
承認	-11.121
Landin	-11.121
multi	-11.121
▁Expression	-11.121
フランス	-11.121
偏	-11.121
Release	-11.121
Style	-11.121
をもたらし	-11.121
ショートカット	-11.121
モノイド	-11.121
リスト内包表記	-11.121
問い合わせ	-11.121
Thread	-11.121
恵	-11.121
MATIC	-11.121
shift	-11.121
を目指した	-11.121
インクリメンタル	-11.121
Metal	-11.121
インテンショナルプログラミング	-11.121
明確化	-11.121
最善の	-11.121
顕	-11.121
取り除く	-11.121
自然数のストリーム	-11.121
next	-11.121
審	-11.121
case	-11.121
SuperCollider	-11.1211
現れた	-11.1211
億	-11.1211
Pilot	-11.1211
をはじめとする	-11.1211
林	-11.1211
Vue	-11.1211
URI	-11.1211
なっていった	-11.1211
アドホック多相	-11.1211
矢	-11.1211
精神	-11.1211
pywikipedia	-11.1211
CHAR	-11.1211
明示的特殊化	-11.1211
秘	-11.1211
を問う	-11.1211
消去	-11.1211
SRI	-11.1211
オフライン	-11.1211
ワーキング	-11.1211
広義の	-11.1211
▁Applications	-11.1211
グラフィカルユーザインタフェース	-11.1212
面倒	-11.1212
に埋め込む	-11.1212
チューリング賞	-11.1212
優勝	-11.1212
誤差	-11.1212
四倍精度	-11.1212
注意深く	-11.1212
演算子の多重定義	-11.1212
StarLogo	-11.1212
にかかる時間	-11.1213
思想	-11.1213
と似ているが	-11.1213
に展開される	-11.1214
雑誌	-11.1215
に搭載されている	-11.1215
Help	-11.1216
に割り当てる	-11.1217
の記事を参照	-11.122
他のプロセスに	-11.1258
の難しさ	-11.1263
を終え	-11.1326
関数を呼び出	-11.1328
り込んだ	-11.1353
を渡すこと	-11.1369
Tom	-11.1371
▁Qua	-11.1474
で表し	-11.1633
と考えられ	-11.1691
パイプ	-11.1692
Programming	-11.1729
が推奨される	-11.1735
を読み書きする	-11.174
言語の特徴を	-11.1756
を省略し	-11.1796
で表され	-11.1827
を確保し	-11.1927
起こし	-11.2022
が強化され	-11.2036
汎	-11.2103
規	-11.211
ポーランド記法	-11.2118
と呼んで	-11.2118
であれ	-11.2118
索	-11.2119
ミューテックス	-11.2119
ベーム	-11.2119
UNIVAC	-11.2119
夫	-11.2119
オランダ	-11.2119
ゴスリン	-11.2119
Deflate	-11.2119
躍	-11.2119
欄	-11.2119
face	-11.2119
急速に	-11.2119
しておけば	-11.2119
コワルスキ	-11.2119
GLib	-11.2119
オートメーション	-11.2119
モンキーパッチ	-11.2119
露	-11.2119
を問わず	-11.2119
ロバート	-11.2119
徹底	-11.2119
深刻な	-11.2119
いろいろ	-11.2119
デクリメント	-11.2119
マトリックス	-11.2119
席	-11.2119
とは言えない	-11.2119
尺	-11.2119
若	-11.2119
あたかも	-11.2119
殺	-11.2119
MUMPS	-11.2119
テクノロジーズ	-11.2119
ロンドン	-11.2119
閉鎖原則	-11.2119
谷	-11.2119
メモリ使用量	-11.2119
読み込んで	-11.2119
Julia	-11.2119
unique	-11.2119
およそ	-11.2119
はいけない	-11.2119
ソフトウエア	-11.2119
フリーウェア	-11.2119
プリンストン大学	-11.2119
工科大学	-11.2119
森	-11.2119
貢献に対して	-11.2119
Fortress	-11.2119
おこなう	-11.2119
オペレーション	-11.2119
問題を解く	-11.2119
食	-11.2119
CORBA	-11.2119
Scilab	-11.2119
override	-11.2119
を見てみよう	-11.2119
エミュレート	-11.2119
Linda	-11.2119
Maybe	-11.2119
▁Specification	-11.2119
に過ぎない	-11.2119
カリフォルニア大学バークレー校	-11.2119
自己関手	-11.2119
読み込まれ	-11.2119
ICWS	-11.2119
Stream	-11.2119
volatile	-11.2119
二分木	-11.2119
魔	-11.2119
Algol	-11.2119
Univers	-11.2119
エンティティ	-11.2119
コア戦争	-11.2119
コード断片	-11.2119
シミュレート	-11.2119
ダートマス	-11.2119
チェーン	-11.2119
ハイブリッド	-11.2119
パイク	-11.2119
ヘルプ	-11.2119
繁	-11.2119
Public	-11.2119
BCCIOSARM	-11.2119
ELSE	-11.2119
FireMonkey	-11.2119
result	-11.2119
が出てくる	-11.2119
邦	-11.2119
あふれ	-11.212
起こらない	-11.212
▁Corporation	-11.212
バランス	-11.212
十六進	-11.212
著名な	-11.212
learning	-11.212
▁Institute	-11.212
トレース	-11.212
国防総省	-11.212
尊	-11.212
恐	-11.212
見通し	-11.212
周辺	-11.212
アトム	-11.212
銀	-11.212
BBN	-11.212
快	-11.212
薬	-11.212
趣	-11.212
Just	-11.212
旧来の	-11.212
Audio	-11.212
CRAN	-11.212
Tree	-11.212
Tech	-11.212
携帯	-11.212
呼出規約	-11.212
大抵の	-11.212
NASA	-11.212
練習	-11.212
SPARC	-11.212
WSH	-11.212
を対象とした	-11.212
Peter	-11.212
を競う	-11.212
講座	-11.212
にしたがって	-11.212
エスケープシーケンス	-11.212
改めて	-11.212
スタックにプッシュ	-11.212
の影響を受けている	-11.212
に組み込まれた	-11.212
は難しく	-11.212
HDL	-11.212
Csound	-11.212
から見れば	-11.2121
Pars	-11.2121
Point	-11.2122
を担当する	-11.2125
データベース管理システム	-11.213
CGI	-11.2131
に与える	-11.2131
を取り出して	-11.2132
に近く	-11.2133
をつけた	-11.2143
hsp	-11.2145
aaa	-11.2152
とみなし	-11.2155
ria	-11.216
を形成する	-11.217
それゆえ	-11.2212
Shader	-11.2212
tific	-11.2335
受け取り	-11.2345
を解消する	-11.235
同等の機能を	-11.2506
が使用可能	-11.2535
ike	-11.2538
行なう	-11.2717
を高め	-11.2746
なっていて	-11.2767
複	-11.2784
としても知られ	-11.283
とよく似	-11.2891
途	-11.3037
によく似た	-11.304
刻	-11.3087
エキスパート	-11.3098
考案され	-11.3107
インストーラ	-11.3108
oogle	-11.3108
ャ	-11.311
BASE	-11.3112
門	-11.3113
関わり	-11.3113
策	-11.3114
双	-11.3114
籍	-11.3117
Music	-11.3118
エンドツーエンド	-11.3119
底	-11.3119
真理値	-11.3119
抵	-11.3119
情報処理推進機構	-11.3119
を排除する	-11.3119
Runtime	-11.3119
エリック	-11.3119
遊	-11.3119
ステパノフ	-11.3119
ワトソン	-11.3119
佐	-11.3119
ハーバード	-11.3119
Generic	-11.3119
utorial	-11.3119
デイリービルド	-11.3119
焦	-11.3119
XcalableMP	-11.3119
に重点を置	-11.3119
タイムシェアリング	-11.3119
本格的な	-11.3119
訴	-11.3119
MathWorks	-11.3119
を除けば	-11.3119
bird	-11.3119
program	-11.3119
ぬ	-11.3119
オーバヘッド	-11.3119
ガイドライン	-11.3119
ジャグ配列	-11.3119
バイアス	-11.3119
ボート	-11.3119
輪	-11.3119
qsort	-11.3119
悩	-11.3119
現れている	-11.3119
修士号を取得	-11.3119
財	-11.3119
Check	-11.3119
スキーム	-11.3119
岩	-11.3119
灯	-11.3119
砲	-11.3119
諸	-11.3119
Debian	-11.3119
スキップ	-11.3119
欲	-11.3119
媒	-11.3119
刺	-11.3119
誘	-11.3119
署	-11.3119
談	-11.3119
夏	-11.3119
訓	-11.3119
昭	-11.312
貴	-11.312
児	-11.312
浮	-11.312
荘	-11.312
ぞ	-11.312
税	-11.312
隣	-11.312
旅	-11.312
幾	-11.4109
験	-11.4226
効	-11.4227
必	-11.4227
功	-11.4229
庁	-11.423
善	-11.423
暗	-11.423
燃	-11.423
村	-11.423
俊	-11.423
築	-11.423
客	-11.423
÷	-11.423
之	-11.423
貫	-11.423
症	-11.423
滑	-11.423
歌	-11.4231
熱	-11.4231
悲	-11.4231
養	-11.4231
′	-11.4231
勢	-11.4231
還	-11.4231
迫	-11.4231
筋	-11.4231
架	-11.4231
固	-11.5477
償	-11.5478
詳	-11.5479
企	-11.5479
登	-11.5479
符	-11.5479
獲	-11.5479
護	-11.548
係	-11.548
益	-11.548
報	-11.548
跡	-11.548
援	-11.548
才	-11.548
党	-11.548
屈	-11.548
史	-11.548
夜	-11.548
》	-11.548
脚	-11.548
《	-11.548
兄	-11.548
栄	-11.548
彰	-11.548
旨	-11.5481
塗	-11.5481
襲	-11.5481
貧	-11.5481
雨	-11.5481
侵	-11.5481
賛	-11.5481
赤	-11.5481
傍	-11.5481
窓	-11.5481
ü	-11.5481
江	-11.5481
皮	-11.5481
漸	-11.5481
肉	-11.5481
鏡	-11.5481
植	-11.5481
暦	-11.5481
【	-11.5481
瞬	-11.5481
裕	-11.5481
】	-11.5481
武	-11.5481
居	-11.5481
巡	-11.5481
浅	-11.5481
訪	-11.5481
勇	-11.5481
構	-11.6873
沿	-11.6883
処	-11.6906
隔	-11.6906
梱	-11.6906
締	-11.6908
営	-11.6908
停	-11.6908
擬	-11.6908
領	-11.6909
港	-11.6909
韓	-11.6909
緑	-11.6909
拓	-11.6909
往	-11.6909
累	-11.6909
姿	-11.6909
孫	-11.6909
’	-11.6909
湾	-11.6909
盟	-11.6909
陸	-11.6909
宮	-11.6909
床	-11.6909
慎	-11.6909
首	-11.6909
λ	-11.6909
克	-11.6909
酷	-11.6909
封	-11.6909
駒	-11.6909
堂	-11.6909
顔	-11.6909
宗	-11.6909
∞	-11.6909
簿	-11.6909
貨	-11.6909
柏	-11.6909
柱	-11.6909
ぽ	-11.6909
息	-11.6909
澤	-11.6909
壁	-11.6909
宏	-11.6909
紀	-11.691
雄	-11.6913
ィ	-11.8357
卒	-11.8575
困	-11.8575
雅	-11.8575
病	-11.8575
姓	-11.8575
傾	-11.8575
網	-11.8575
革	-11.8575
覆	-11.8576
弾	-11.8576
也	-11.8576
孔	-11.8576
歓	-11.8576
厚	-11.8576
街	-11.8576
勉	-11.8576
宿	-11.8576
吹	-11.8576
宅	-11.8576
履	-11.8576
救	-11.8576
惑	-11.8576
濫	-11.8576
船	-11.8576
銃	-11.8576
謳	-11.8576
骨	-11.8576
Δ	-11.8576
餌	-11.8576
寛	-11.8576
服	-11.8576
鳥	-11.8576
青	-11.8576
阻	-11.8576
←	-11.8576
婚	-11.8576
肩	-11.8576
駅	-11.8576
艦	-11.8576
嫌	-11.8576
懸	-11.8576
雲	-11.8576
鳴	-11.8576
央	-11.8576
綴	-11.8576
敷	-11.8576
託	-11.8576
晃	-11.8576
認	-12.0424
静	-12.0484
答	-12.0492
辺	-12.0573
宣	-12.0573
縮	-12.0574
授	-12.0574
抗	-12.0574
隊	-12.0574
荷	-12.0575
徴	-12.0575
声	-12.0575
券	-12.0575
錯	-12.0576
枝	-12.0576
α	-12.0576
μ	-12.0576
β	-12.0576
∀	-12.0576
銘	-12.0576
孤	-12.0576
朝	-12.0576
牛	-12.0576
蘭	-12.0576
浸	-12.0576
花	-12.0576
宝	-12.0576
棒	-12.0576
輸	-12.0576
玲	-12.0576
竹	-12.0576
季	-12.0576
晴	-12.0576
眼	-12.0576
票	-12.0576
縁	-12.0576
拾	-12.0576
八	-12.0576
崩	-12.0576
遣	-12.0576
池	-12.0576
逃	-12.0576
歴	-12.0576
九	-12.0576
徳	-12.0576
粗	-12.0576
翔	-12.0576
亜	-12.0576
兆	-12.0576
塚	-12.0576
駐	-12.0576
汲	-12.0576
孝	-12.0576
清	-12.0576
玉	-12.0576
聴	-12.0576
漫	-12.0576
暮	-12.0576
吉	-12.0576
堀	-12.0584
慣	-12.2956
院	-12.3073
粒	-12.3074
挿	-12.3074
球	-12.3074
殊	-12.3075
塩	-12.3075
鉛	-12.3075
候	-12.3075
汚	-12.3075
⊆	-12.3075
販	-12.3075
≥	-12.3075
邪	-12.3075
沖	-12.3075
黄	-12.3076
祥	-12.3076
脳	-12.3076
菌	-12.3076
丁	-12.3076
ぺ	-12.3076
□	-12.3076
猿	-12.3076
聖	-12.3076
聞	-12.3076
衰	-12.3076
陰	-12.3076
妹	-12.3076
弁	-12.3076
昔	-12.3076
香	-12.3076
尚	-12.3076
⇒	-12.3076
七	-12.3076
剤	-12.3076
握	-12.3076
渇	-12.3076
°	-12.3076
ö	-12.3076
η	-12.3076
吐	-12.3076
尉	-12.3076
届	-12.3076
康	-12.3076
羊	-12.3076
腐	-12.3076
承	-12.3076
拒	-12.3076
旗	-12.3076
奉	-12.3076
樹	-12.3076
舵	-12.3076
幼	-12.3076
是	-12.3076
枯	-12.3076
湯	-12.3076
≦	-12.3076
患	-12.3076
遺	-12.3076
噂	-12.3076
隆	-12.3076
筑	-12.3076
均	-12.6408
鎖	-12.6408
己	-12.6408
飾	-12.6408
仏	-12.6409
☆	-12.6409
御	-12.6409
冨	-12.6409
培	-12.6409
黙	-12.6409
§	-12.6409
∈	-12.6409
南	-12.6409
〇	-12.6409
景	-12.6409
π	-12.6409
ε	-12.6409
丈	-12.6409
唱	-12.6409
城	-12.6409
執	-12.6409
塞	-12.6409
株	-12.6409
ł	-12.6409
≪	-12.6409
≫	-12.6409
享	-12.6409
〉	-12.6409
〈	-12.6409
叔	-12.641
坊	-12.6416
脈	-13.1402
拡	-13.1406
釈	-13.1407
映	-13.1407
奨	-13.1408
敗	-13.1409
潔	-13.1409
勘	-13.1409
菱	-13.1409
六	-13.1409
宇	-13.1409
紛	-13.1409
戸	-13.1409
徹	-13.141
塔	-14.1082
圳	-14.1083
喩	-14.1084
呂	-14.1085
匹	-14.1086
伊	-14.1087
且	-14.1088
€	-14.1089
駁	-14.109
震	-14.1091
遭	-14.1092
贈	-14.1093
賠	-14.1094
讃	-14.1095
謝	-14.1096
諦	-14.1097
舗	-14.1098
綻	-14.1099
秩	-14.11
盲	-14.1101
璧	-14.1102
滞	-14.1103
溢	-14.1104
泳	-14.1105
於	-14.1106
斎	-14.1107
掘	-14.1108
應	-14.1109
慶	-14.111
彿	-14.1111
彷	-14.1112
彩	-14.1113
廊	-14.1114
塾	-14.1115
坦	-14.1116
喪	-14.1117
僅	-14.1118
辿	-14.1119
繹	-14.112
緊	-14.1121
穽	-14.1122
珠	-14.1123
漏	-14.1124
曹	-14.1125
暴	-14.1126
暇	-14.1127
撮	-14.1128
挑	-14.1129
填	-14.113
勲	-14.1131
借	-14.1132
馴	-14.1133
闘	-14.1134
遥	-14.1135
距	-14.1136
虚	-14.1137
蓄	-14.1138
玩	-14.1139
朴	-14.114
旬	-14.1141
撤	-14.1142
措	-14.1143
弓	-14.1144
叩	-14.1145
冠	-14.1146
亀	-14.1147
遇	-14.1148
萌	-14.1149
童	-14.115
督	-14.1151
珍	-14.1152
獄	-14.1153
濃	-14.1154
搬	-14.1155
据	-14.1156
披	-14.1157
乙	-14.1158
乏	-14.1159
ゥ	-14.116
頒	-14.1161
郵	-14.1162
軌	-14.1163
罪	-14.1164
絞	-14.1165
窟	-14.1166
稀	-14.1167
浪	-14.1168
暫	-14.1169
帳	-14.117
黎	-14.1171
鬼	-14.1172
貼	-14.1173
臭	-14.1174
臣	-14.1175
紐	-14.1176
犠	-14.1177
牲	-14.1178
柄	-14.1179
捗	-14.118
恩	-14.1181
弟	-14.1182
希	-14.1183
妨	-14.1184
儀	-14.1185
瞭	-14.1186
畳	-14.1187
津	-14.1188
洞	-14.1189
挟	-14.119
庭	-14.1191
但	-14.1192
願	-14.1193
雇	-14.1194
脆	-14.1195
狙	-14.1196
牢	-14.1197
敬	-14.1198
彙	-14.1199
准	-14.12
遍	-14.1201
迎	-14.1202
診	-14.1203
肥	-14.1204
染	-14.1205
旦	-14.1206
奏	-14.1207
堅	-14.1208
唆	-14.1209
僚	-14.121
魅	-14.1211
耐	-14.1212
磁	-14.1213
矩	-14.1214
療	-14.1215
滅	-14.1216
府	-14.1217
如	-14.1218
冒	-14.1219
棋	-14.122
抱	-14.1221
勧	-14.1222
閲	-14.1223
迅	-14.1224
誉	-14.1225
緯	-14.1226
徐	-14.1227
函	-14.1228
鈴	-14.1229
遡	-14.123
遂	-14.1231
需	-14.1232
尽	-14.1233
妙	-14.1234
殆	-14.1235
欧	-14.1236
劇	-14.1237
驚	-14.1238
購	-14.1239
揃	-14.124
察	-14.1241
奇	-14.1242
膨	-14.1243
肯	-14.1244
羅	-14.1245
緩	-14.1246
忘	-14.1247
矛	-14.1248
盾	-14.1249
努	-14.125
ぱ	-14.1251
衛	-14.1252
激	-14.1253
捨	-14.1254
妥	-14.1255
仲	-14.1256
践	-14.1257
詰	-14.1258
留	-14.1259
免	-14.126
倣	-14.1261
齢	-14.1262
緒	-14.1263
熟	-14.1264
循	-14.1265
払	-14.1266
洗	-14.1267
誕	-14.1268
蔵	-14.1269
稿	-14.127
押	-14.1271
播	-14.1272
遷	-14.1273
誰	-14.1274
煩	-14.1275
損	-14.1276
波	-14.1277
摘	-14.1278
掛	-14.1279
占	-14.128
融	-14.1281
狭	-14.1282
契	-14.1283
肢	-14.1284
監	-14.1285
核	-14.1286
促	-14.1287
攻	-14.1288
抑	-14.1289
匿	-14.129
ょ	-14.1291
請	-14.1292
討	-14.1293
険	-14.1294
揮	-14.1295
危	-14.1296
刷	-14.1297
背	-14.1298
維	-14.1299
招	-14.13
批	-14.1301
禁	-14.1302
捉	-14.1303
唯	-14.1304
春	-14.1305
宙	-14.1306
壊	-14.1307
剰	-14.1308
把	-14.1309
募	-14.131
衣	-14.1311
紹	-14.1312
針	-14.1313
訂	-14.1314
糖	-14.1315
貢	-14.1316
該	-14.1317
衝	-14.1318
蔽	-14.1319
翻	-14.132
脱	-14.1321
顧	-14.1322
尾	-14.1323
逐	-14.1324
曖	-14.1325
昧	-14.1326
頻	-14.1327
箇	-14.1328
織	-14.1329
添	-14.133
隠	-14.1331
透	-14.1332
排	-14.1333
委	-14.1334
致	-14.1335
軽	-14.1336
粋	-14.1337
柔	-14.1338
混	-14.1339
軟	-14.134
慮	-14.1341
礎	-14.1342
働	-14.1343
便	-14.1344
頼	-14.1345
縛	-14.1346
況	-14.1347
因	-14.1348
午	-14.1349
駆	-14.135
交	-14.1351
査	-14.1352
舞	-14.1353
収	-14.1354
振	-14.1355
搭	-14.1356
弧	-14.1357
催	-14.1358
繰	-14.1359
岐	-14.136
避	-14.1361
削	-14.1362
模	-14.1363
ぼ	-14.1364
憶	-14.1365
待	-14.1366
括	-14.1367
普	-14.1368
及	-14.1369
転	-14.137
挙	-14.1371
備	-14.1372
較	-14.1373
略	-14.1374
了	-14.1375
違	-14.1376
択	-14.1377
納	-14.1378
属	-14.1379
独	-14.138
械	-14.1381
研	-14.1382
互	-14.1383
移	-14.1384
由	-14.1385
完	-14.1386
依	-14.1387
始	-14.1388
抽	-14.1389
析	-14.139
継	-14.1391
識	-14.1392
操	-14.1393
更	-14.1394
般	-14.1395
境	-14.1396
含	-14.1397
供	-14.1398
限	-14.1399
ォ	-14.14
提	-14.1401
参	-14.1402
換	-14.1403
頂	-14.1404
存	-14.1404
ァ	-14.1405
阪	-14.1406
様	-14.1406
哲	-14.1406
徒	-14.1407
以	-14.1407
鉄	-14.1408
駄	-14.1408
責	-14.1408
卓	-14.1408
ュ	-14.1408
棄	-14.1408
寿	-14.1409
干	-14.1409
励	-14.1409
嘆	-14.1409
渉	-14.1409
ェ	-14.1409
倉	-14.141
須	-14.141
ッ	-14.141
衆	-14.141
